
/**
  ******************************************************************************
  * @file    autoencoder_model_data.c
  * @author  AST Embedded Analytics Research Platform
  * @date    Thu Jan 13 18:06:57 2022
  * @brief   AI Tool Automatic Code Generator for Embedded NN computing
  ******************************************************************************
  * @attention
  *
  * Copyright (c) 2021 STMicroelectronics.
  * All rights reserved.
  *
  * This software is licensed under terms that can be found in the LICENSE file
  * in the root directory of this software component.
  * If no LICENSE file comes with this software, it is provided AS-IS.
  ******************************************************************************
  */
#include "autoencoder_model_data.h"
#include "ai_platform_interface.h"

AI_API_DECLARE_BEGIN

AI_ALIGNED(32)
const ai_u64 s_autoencoder_model_autoencoder_model_weights_array_u64[ 62124 ] = {
  0x3c0d72c0bd8822f6U, 0x3d7839c03cceffe8U, 0x3d3743cc3d9de1b6U, 0x3ce52b483dbfce12U,
  0xbd9030183dce6ef4U, 0xbd279c8abc07bcf0U, 0xbc16e6103ab692c0U, 0x3d71f628bdbde423U,
  0x3d712650bcaed5ecU, 0x3b8e0300bd340150U, 0x3dbc0424bd68ec2aU, 0xbd15665ebd4ee9d3U,
  0x3d523accbc9cb980U, 0x3d2e0e6cbdd14eecU, 0xbd8c7668bd96df5cU, 0x3d16d3043c076720U,
  0x3c7b4fc83c407830U, 0x3db4be86bb8ae310U, 0x3cda9d68bd4ea785U, 0xbd14c7a43c296148U,
  0x3db293303d391facU, 0x3cb22c703d1ef650U, 0xbd9903cc3ca47dc0U, 0xbc5b8fd0ba899fc0U,
  0x3d8e2316bdd20602U, 0xbd0f6eae3dbad3b0U, 0x3db2d03cbcb187f0U, 0x3d257cd8bd6deac8U,
  0x3d33cf00bdbaa078U, 0xbcfeb4143c9efd40U, 0x3cbc2e683d85be96U, 0xbd7d9d45bd0802e6U,
  0x3d2627c0bd3f7a6bU, 0xbd76ee11bdb4bdc8U, 0xbd2f58f63daaaa96U, 0xbbe39900bdb7af60U,
  0xbd3108fcbd88dbb6U, 0xbd94ac5a3dd43ae6U, 0x3dced6babb3ffbe0U, 0xbce6d6c4bc10cac0U,
  0xbd8ab26cbc852e88U, 0xbd50d2d4bd90b27aU, 0x3d6b0328bdb9a9e4U, 0x3d827d5abd614b83U,
  0xbd9bbd9a3d849e5cU, 0xbdbbacb43dd9889eU, 0x3daaf716bb899860U, 0xbd0488123da4463aU,
  0x3d82697a3dbb869eU, 0xbd0fbb2a3cd608a0U, 0x3c50a4703dcab0caU, 0x3d248ab4bd6ab936U,
  0xbd6ec756bd568aeeU, 0x3d0837b8bd49c985U, 0xbc5d1e803dcd1b9eU, 0xbd3e0a6f3db2e1f4U,
  0x3cd07380bdd7d102U, 0x3dc7a384bc5ec900U, 0xbd87376abd9a4443U, 0xbd803f203d385d18U,
  0x3dc5b7fc3dcc182eU, 0xbd928256bc4334f8U, 0xbd807ed2bd9565beU, 0xbba6c1a03c9c9eb0U,
  0xbb2137e0bd878768U, 0x3d6acd08bd593dfeU, 0xbd9297af3d1017dcU, 0xbdc91838bdb365cbU,
  0xbd60e3e53d9814e4U, 0xbba15020bd9929d3U, 0xbdbe0188bd3061c0U, 0x3dc52d18bd89238cU,
  0x3d7e66ccbdb714e3U, 0x3d57e014bd9dfd12U, 0x3dd7a9d23cf4e948U, 0xbd8ce5783dcba052U,
  0x3dcbe3b23dbf6a06U, 0xbd3e8ad5bdd91354U, 0xbdb777f23d0f0d68U, 0xbba3d3c0bdcba68bU,
  0x3d74afbcbd95439bU, 0xbdb70d33bd6c0235U, 0x3ce07b483d529ae4U, 0xbcc84ae0bda28ae0U,
  0x3c803f94bc5d9298U, 0x3d5e57bcbdcefd63U, 0xbdc99d483a3bab80U, 0xbdd6607abd78b103U,
  0x3ba71f303d3a7960U, 0x3d0cf24c3d857ec2U, 0x3d344a38bd571412U, 0xbcc9e974bd84c058U,
  0x3caf8ce83d59c6d0U, 0x3d9b68303a9e9780U, 0xbdd7b9023dcc7690U, 0x3d93e000bd937c4dU,
  0x3d3a98583c9d0b88U, 0x3cda80b0bbe33160U, 0xbd7e5bafbcf16744U, 0xbdc34b65bc3b6ef8U,
  0xbdbd565bbdd0785aU, 0x3d7394bcbd7afa54U, 0x3daebedabd0246feU, 0xbd02c3a23d66441cU,
  0x3da14aaabda59a31U, 0x3c228450bd6f4875U, 0x3cae85383da95a54U, 0xbd1f0dbe3dd80ac8U,
  0xbba1dd80bd04672eU, 0x3ca46be83d62cc34U, 0xbd6dd9fe3c6d32e0U, 0xbc9d26643d587fccU,
  0x3d4c41ec3d1abcdcU, 0xbdd7c0493c1631e8U, 0xbd746ae5384c9000U, 0x3d9aeba03cc5a390U,
  0xbd8abaac3dbdcefaU, 0x3dd9d70e3c878e24U, 0x3d7f43243d81ef78U, 0x3d9faeb2bd0799c4U,
  0x3d9e7bdebd9d249eU, 0xbd26b1f6bd353b02U, 0x3d174a70bd855b83U, 0xbb2d2700bdbc9c64U,
  0xbca5ebecbdd7dc18U, 0xbcabe22cbd9ead26U, 0x3d83e6283d121418U, 0xba9b0540bdc52ae6U,
  0xbdc947893d3e04c0U, 0xbdb3292ebbab6300U, 0x3d4beb88bd950667U, 0xba6db800bd8627d0U,
  0x3d0a03543cab56d8U, 0xbda9814abc959b60U, 0xbbfdca603d26dcbcU, 0xbd15204ebdbd44b4U,
  0x3c94a2083d81c33aU, 0x3d8a1cce3a373f00U, 0x3c904abcbd460f87U, 0x3d16e2443d2ef504U,
  0xbc1cd0f0bd762704U, 0x3d8bab3e3d836df4U, 0xbda8769dbdb9520aU, 0xbd8e2f22bd3b0f8cU,
  0xbc826f9cbdac88c4U, 0xbd74510b3d038bacU, 0x3da40cde3cbc2048U, 0xbc45adf8bd87fb63U,
  0xbcb62ff43da57628U, 0x3d6bae04bbdbd5f0U, 0xbd4d1927bd66fbceU, 0xbc249cb8bd9654d2U,
  0x3c8147bcbd236b04U, 0xbd1990823d74326cU, 0xbd8f6dd7bc725a98U, 0xbc87dc3cbb9411d0U,
  0xbdcf6bd33d02f5d0U, 0x3d68c1d83d47919cU, 0x3d2200843dcd31d8U, 0x3d5b45c0bd85b918U,
  0x3d8f76803d657d84U, 0x3d2a82a4bd08997aU, 0xbcf00b443d725b48U, 0xbd9a58ccbd8ca6e9U,
  0x3ca940403cb23210U, 0xbdd1c95ebd12109cU, 0xbd8e51d23da1b0f6U, 0xbd1361403c95b13cU,
  0xbc7e94983d743d4cU, 0xbdc16ab23c1c98c8U, 0x3d81022abdd0e571U, 0x3dc778b4bd9f6e82U,
  0x3d4d5a00ba346f00U, 0xbd7fb9e43b3a2640U, 0xbdc60df83cd52b38U, 0xbdb55d5cbc055318U,
  0x3d39e6b83d1c46bcU, 0x3dcdb138bc2fe3c8U, 0xbdcea992bd0da1ccU, 0xbb069c80bca2bd48U,
  0x3d8b2d82bdd838beU, 0xbd6c2724bd964942U, 0xbd02498c3d81554aU, 0x3c3db478bda2e0a6U,
  0xbd5e52a03db73cb8U, 0xbdd4c12d3baf0790U, 0xba880c80bdbc3eb4U, 0x3dafa5d8bdc69d52U,
  0xbaba6e403c6dd208U, 0xbdafe1c4bd0cc06aU, 0x3c8f24e43d5e890cU, 0xbcabdf4cbd949d71U,
  0xbd8770d2bd8fa683U, 0x3ccb6040bd62af66U, 0xbdae28f6bcd517fcU, 0xbca7ac58bd038656U,
  0x3d3033483ca99428U, 0x3dd3adb23b2c7ba0U, 0xbd06a4283cbdb0b8U, 0xbd4d92703cdf0ca8U,
  0xbdba65573cdbf1d6U, 0x3d6e6933bbd77b1eU, 0x3cbe0f29bd89c851U, 0x3d9927153aaa0cceU,
  0x3cb5a059bd7b176dU, 0xbcb1b1223c079078U, 0xbce3732abdda7fd5U, 0x3d9b2f8fbcb932f1U,
  0x3bca9fae3d3e8793U, 0xbd47dec93dc990beU, 0xbc57277ebd1539c8U, 0x3d10ad01bd7ea665U,
  0xbcb411613c9ace1eU, 0x3c84441cbcc0958aU, 0xbdb302473d7faaf3U, 0xbcd8d7bebc25b000U,
  0xbc8796353daf0c31U, 0xbd60c0f6bdc8533aU, 0xbc97bdc33ba771c5U, 0xbcefe7853ccfa351U,
  0xbcfb8adcbced42c9U, 0x3d3ce5613d02cf65U, 0x3d12c80abc9cb3d1U, 0xbdcd355cbd767638U,
  0x3dc1f4ffbd506293U, 0x3ac447adbd332314U, 0xba8012683d033de1U, 0xbc634fae3cad29f8U,
  0x3cd39796bd98720bU, 0x3d927a5aba6297e6U, 0x3db1ce2cbc4baa0fU, 0xbd97497e3c11eabfU,
  0x3d7c18a3bd39d9ebU, 0xbddb795e3dc9252aU, 0x3d0308e53d8ca9f8U, 0x3d47d9e63d19fa39U,
  0x3dc799a8bd906f1cU, 0xbcbd5b82bd893dcbU, 0xbd5751533d4b1cd5U, 0xbd67dfecbd0adedfU,
  0xbd94ed693a1ccc84U, 0xbcbe2497bd8a818aU, 0x3ccd2a70bd1b7520U, 0x3ce352d13d8dfb1eU,
  0x3caac2723d93c92bU, 0xbd9ed7d93d91c15eU, 0xbdb71544bd8b248bU, 0xbca7c86fbdd40c7eU,
  0xbd8e95d3bd817cbdU, 0xbc82926e3dc888f3U, 0x3cf69e8dbbae2790U, 0x3d6549913c1c795aU,
  0xbd8723d13b85870dU, 0xbd163077bd1d3ca2U, 0x3cd325d23ce56c15U, 0x3be331b3bdd22e7dU,
  0xbbe6b64b3d42c76eU, 0xbcc3454c3d10d6f7U, 0x3d1d79b4bbe813fcU, 0xbc50b32f3dd271d6U,
  0x3d1dab9e3dbb6e54U, 0x3db8b2173d6c76baU, 0x3d05f13c3d4952d8U, 0x3d9f05bd3d97b02fU,
  0xbd65e262bd894b65U, 0xbd2d7092bdddee82U, 0xbd497eafbc24225fU, 0x3db5e5013dcea256U,
  0xbcd9e552bdaf62a8U, 0xbdc83dc03d4aa61fU, 0xbd86deeebd35427fU, 0x3cafa7553da638f9U,
  0xbd9c93bf3d2dec6fU, 0x3b32ca85bd6829d7U, 0x3b811da93da3be7fU, 0x3d5f10e13d3537fcU,
  0xbda343e73daec509U, 0x3c20b55cbadf8996U, 0xbd9484d13acd209eU, 0xbd6e5a6f3d8e29beU,
  0xbd62090c3c888452U, 0x3dbccef83c29d01fU, 0xbc406c60bd96c6d7U, 0x3dba5b103bcfb47fU,
  0xbd0832e8bd1c17fdU, 0x3d5841eebc1bb09aU, 0x3dbdd966bdcd751cU, 0xbca79fce3da2eabeU,
  0x3c916361bdbc2441U, 0x3d470555bbed5052U, 0x3cfd55dd3c8d710dU, 0x3cb6a1453d2ca75dU,
  0x3d2b2ce8bda840ebU, 0xbd947f33bda8a5daU, 0x3d18ea723baf3cd7U, 0x3dab4a00bbee71c1U,
  0xbdabbcc8bd14fe89U, 0xbdad77503d0b6f2aU, 0x3c6e710f3bbdf454U, 0x3cc029f03db3a327U,
  0xbd9f06afbc5c69cfU, 0x3dcf40433dbfb8e7U, 0x3bb18d4cbd3da311U, 0x3d163bcabda7964eU,
  0xbd8e44c6bdd62a3aU, 0x3dabbc81bdbcd5fbU, 0xbd5dd3c9bdb56818U, 0xbac137513c57ef87U,
  0xbdaa2e14bb8da414U, 0xbd0fed01bda28d4bU, 0xbd5d0fc03db4a096U, 0x3d75e9e93ceef99eU,
  0x3d0f2cbcbd70be30U, 0xbd86d247bd687fc0U, 0xbdd86d343d962f4aU, 0xbdcac648bdabb75fU,
  0x3d21488d3d7c5116U, 0xbc9a188cbc2f08d8U, 0x3c6c00a03d5a5da9U, 0xbd839f76bda68efbU,
  0x3d48cf4dbcbe6918U, 0xbd908487bce2673cU, 0x3dcb8f59bd841570U, 0xbdd5f6c8bdb219c2U,
  0x3d9bc97cbcc65dceU, 0x3d2f86f73d5b7669U, 0x3d8b024fbca228c9U, 0x3dc85578bd0704b8U,
  0xbd21f5f03c342ba8U, 0x3db6d808bdc429c2U, 0xbbd53afe3d1c67feU, 0xbdb6fe4dbd51c7dbU,
  0x3dc1d74d3d3c8ce8U, 0x3dc3819b3d8a0808U, 0x3d322df5bdb18f3bU, 0x3da172e63c0c2aecU,
  0x3db637a7bd82623cU, 0x3d5390d23dbc6b9cU, 0x3d6134c1bda4f89cU, 0xbad1912dbdd9016fU,
  0xbd9c9b0f3cbe1e4aU, 0x3c35b115bdb1a31fU, 0x3d21a2c2bd26a874U, 0x3db235393c3d6020U,
  0x3da69419bdcb73e5U, 0x3da41dc2bc1025c3U, 0x3d052e273d1234f7U, 0xbdc6bda03d89e93bU,
  0x3da3ff8c3d2a55e0U, 0xbdb38c08ba963946U, 0x3c4f8f713d233cccU, 0x3bf59f2dbda72590U,
  0xbd5fdc58bdd9c224U, 0xbdc3095abd9d744eU, 0xbdd5d5fdbbbbd1b5U, 0xbc4a69ce3d436216U,
  0x3da186d7bdaaf888U, 0x3d4443ecbd9c906eU, 0xbdca5dcd3c983a8cU, 0x3cdd24a2bd570a82U,
  0x3d368e4f3dbf3cc3U, 0xbc5ec471bd3bff89U, 0xbdae4c053c989069U, 0xbcff4517bd10e0e6U,
  0x3dcd0e503c81aa35U, 0x3dc1ab6c3c937a69U, 0xbbae2d79bd9f855aU, 0xbbe6b828bd8d525fU,
  0x3cf8a7e0bbb26e5dU, 0xbd52b2413ca6a404U, 0x3d95b0f63c50d1caU, 0xbd19965d3d57f1dfU,
  0xbc99712cbdbf1663U, 0x3cd2ff02bd34b6aeU, 0x3d42bf6f3d021012U, 0x3cc17c6f3d96edc9U,
  0x3d00f5c93dde8afaU, 0x3d98ae9bbc284097U, 0x3d7d03a53ca1d5aeU, 0xbd6fc7ad3dbeacc9U,
  0xbddb6c403d8583a5U, 0x3b9bcc45bb9f6015U, 0xbd02d0cbbda067e3U, 0xbd875b1c3cfd727aU,
  0xbcf7d72abd980c03U, 0x3d765644bdcb3fe3U, 0x3c4bdab03d1c3dcaU, 0x3d1b44903d2f3af5U,
  0x3c890acc3dad2aaaU, 0x3d90e4f8bc98a8c3U, 0xbceda6d0bdadae04U, 0x3d4bdc22bd788915U,
  0xbc1abf063d9a72e7U, 0x3af2a9353cdabeb7U, 0xbda5d8c2bdde5e5eU, 0xbc4a824abd9f7e2fU,
  0xbce33254bd2cf682U, 0xbddc71113d1b8f98U, 0xbdd8c3fabd098ae2U, 0xbd41f2e43d9bf3a0U,
  0x3db25ca03cb7bbb3U, 0x3d04d55b3d14a8d8U, 0xbd9640dabd8bbed0U, 0x3d32e7f6bde7e18eU,
  0xbc8d4768bde293d3U, 0x3db2e62cbda96520U, 0xbd258d493dd937e6U, 0xbd0166cf3d7d15c3U,
  0x3d9d120dbd63b3a1U, 0x3d56a502bdbc817dU, 0x3dcdb3773ccdc493U, 0x3d977fd6bdd07b01U,
  0x3d11e74e3dc2701bU, 0x3c85480739f20628U, 0xbd4d4e713c53b86fU, 0xbd2a764c3dc81b0cU,
  0xbc39f7073cecb6a8U, 0xbd500bcf3cf06570U, 0x3d840499bcb05ab1U, 0x3dbad57a3d3bda2aU,
  0x3dae56883d9c2e9fU, 0x3d51c3f0bd549fdfU, 0xbdbd1892bda804dfU, 0xbd897106bdf26ad3U,
  0x3dc490153d94b02aU, 0xbdd36efebd1b1501U, 0x3da9bd28bd855f16U, 0xbb1233853d827fc7U,
  0x3dc97aa4bd7feaffU, 0x3cd09558bc42963cU, 0x3dccf2ccbcef09baU, 0x3d64bd71bd8c9911U,
  0xbd968b08bdd91d5dU, 0xbd1d3f993cf86b03U, 0xbdb1a03b3da5e674U, 0xbd5ccf36bcedb0e0U,
  0x3dbe862b3d3d7afdU, 0xbd0d6f07bdce3260U, 0x3db29ac73c0b7bc1U, 0xbce486acbba35233U,
  0x3d2ee3613d9601c5U, 0xbca549493d884203U, 0x3b54f4ab3d9c0dd8U, 0xbd99c343bcc0dd99U,
  0x3de92455bcd74517U, 0x3d140f24bd32ceefU, 0xbd671f6abae0f8c8U, 0xbcb714bf3d83a562U,
  0xbdbc15df3cfdc8a1U, 0x3d9d92193db98fb5U, 0x3c925b92bdbec454U, 0x3de467f53d21517fU,
  0x3de994b3b8b39b2aU, 0xbc9143e4bdcedbd6U, 0x3ce2249bbd450d4fU, 0xbd8b29243c5bdb20U,
  0x3d4effdf3dc4f49fU, 0x3da354a9bdb1e465U, 0x3da15551bd8e02c4U, 0xbc7913103c11c859U,
  0x3de386923d636e0eU, 0x3d14d84cbbe981e5U, 0x3c61beedbbb93448U, 0x3d991c0f3dd75257U,
  0xbc4b4226bcc61144U, 0x3dd12c403dac1058U, 0x3d422f22bcb13d8fU, 0xbd1d33fbbddc0bffU,
  0x3d8a43c1bcfdb692U, 0x3d3b365d3dd31cb2U, 0xbdb560903cc742a8U, 0xbdb5d4143db9afedU,
  0x3ddaecaebdbcad35U, 0x3cf09f46bd7a4bffU, 0x3cb771333d9cfdd8U, 0xbd7a3ce6bd894e2dU,
  0x3d9d379ebd7d5984U, 0x3d1979babc0cabd3U, 0xbb18ec12bd3fc1afU, 0xbdc2748d3bfb2a18U,
  0xbda9785abcb2c38bU, 0xbd504c12bda407a7U, 0xbcf82bb73caffc7aU, 0xbcc059b9bd276798U,
  0x3d0187523ddac45cU, 0xbdb898dd3da67ecbU, 0xbbc2ed21bdb7a6c4U, 0xbcecd2f8bdc35240U,
  0xbd665650bdd4fcabU, 0xbb1c3de7bd9d73baU, 0x3dc185413d92466bU, 0x3c0269b8bc1210dbU,
  0xbd3518323dac0ce0U, 0x3d4b7bf3bd37aa49U, 0x3d90f587bae33220U, 0x3d219abcbbd35b68U,
  0x3de26935baad1f71U, 0xb740ca10bd83c2a5U, 0x3c76ff73bdb92d14U, 0x3c4300a23cca2a9aU,
  0xbd168f35bd1e1014U, 0x3d2654c9bd3310b1U, 0x3b5280f5bdb7e97bU, 0x3dd9bac13d8537cbU,
  0xbdada5b8bd60e179U, 0x3b2befab3d88fc3cU, 0x3bc1383b3dbf80c9U, 0x3d468c1cbca0b600U,
  0x3c56a9dcbbaec28eU, 0x3d913fb43dc75744U, 0x3cdf48a3bbf20f88U, 0x3d033af63d9334b9U,
  0xbd98631d3db5708dU, 0xbd9a0a9f3d2a9efeU, 0x3c956925bd9121c6U, 0x3d87b2983db855dbU,
  0x3d934ca03ca2862eU, 0x3dec8a273b36622cU, 0x3cd27942bc2548f5U, 0x3d526041bdbd9e54U,
  0xbc9c57e3bc3706b6U, 0xbc3dfff03dce415eU, 0x3dba28423d4dfe3bU, 0x3da5c297bdbb58efU,
  0xbd8a0c97bd777731U, 0x3d882e0abdac3295U, 0x3de716d13cb60a83U, 0x3d99d28cbd9353f9U,
  0x3ce283e33d4266b1U, 0x3d207bb23d9e1550U, 0xbdd2c1673d1e46f9U, 0xbd9744f4bdc0d728U,
  0xbda38951bd4a3e14U, 0xbc91d344bc8b4d8eU, 0x3dd1472b3d5f5416U, 0x3c8bfe5ebdbc9635U,
  0xbdc734a9bbfef144U, 0xbd971cdcbdc4a17cU, 0x3c27988b3c106f1bU, 0x3c4a512bbd0c6cf7U,
  0xbc115d473d0a6791U, 0x3d94284fbccd7a53U, 0xbdd084793d66b9b3U, 0x3d8a16a7bb58f718U,
  0x3d137c583d90e001U, 0x3c8641bcbd9ae6f2U, 0x3d85de66bd0406e2U, 0xbd4f7f05bd152e65U,
  0xbd9f2850bddc95b5U, 0xbdcec3b93d11db44U, 0x3d5a70293d8bd75eU, 0xbb7058c2bcf9a7d0U,
  0xbd0ffea13d5c32e9U, 0xbc78c4b5bda6c674U, 0x3d7dc2373b5af8f4U, 0xbd90edafbd1a21ddU,
  0x3da34f043d62a162U, 0xbd42b3a83c4b94baU, 0xbd47de78bd4301d2U, 0x3c9ad9b33d958133U,
  0xbd7e4dec3dbf5159U, 0x3da3c1733c8bdc53U, 0x3d94fb8abde24d7aU, 0xbdd198ed3d1b6ba5U,
  0xbcca64afbd22789eU, 0xbb64b0333d9d3a07U, 0xbc58f9cc3db025f3U, 0xbda16fb7bc074f6aU,
  0x3d3d50d93caa687cU, 0x3d2520f8bde61e7bU, 0xbc4a5d013cfe146bU, 0xbb90ffdebb74f4a9U,
  0xbcae7e1ebc535daaU, 0xbd955d2bbce52feeU, 0x3bea115a3d83d698U, 0xbd93bb92bc8dd9aaU,
  0xbb4cf0e2bde7bfa3U, 0xbdcf6296bc4b0546U, 0x3a9b4931bd0ec630U, 0x3d30f58bbd23b8deU,
  0x3cee53033dc7c74dU, 0xbccbb99e3d133307U, 0x3d9e95453d454abbU, 0x3c1fa5ac3d840aacU,
  0xbd2aec72bdd9674bU, 0x3d9e7e29bd502fa3U, 0x3bba2a28bb808a37U, 0xbd021edf3d4d3e00U,
  0xbd8bf4c8bceead02U, 0x3d41a5c7bd49c864U, 0x3d62d1153b103080U, 0xbd098f07bda7e37fU,
  0x3d0ed8ef3b9b14a9U, 0xbddc8b023ce79f00U, 0xbdd6a484bc163720U, 0x3d3741ff3d98e332U,
  0xbd86f2533d9b9afdU, 0x3d3a27983b98788eU, 0xbddfeb46bd52800eU, 0x3d745be6bd467784U,
  0xbd8f29bbbc6bc509U, 0xbc860cbe3dd22dacU, 0xbd7f0f6cbd8ca17fU, 0x3c43acd83ceb3e3bU,
  0xbd699029bc138db0U, 0x3dcadcec3c9d831bU, 0xbdf774cf3c6cf6b3U, 0x3cd9ca8a3dde609fU,
  0x3dd4eaaf3a04a17fU, 0x3da26547bd4c7a03U, 0x3dae662b3cebcce8U, 0x3d035dddbdb36263U,
  0x3c9426023d3feb1eU, 0xbbf5f109bd9805c6U, 0xbd2bdf5d3d3cd608U, 0x3d44b08b3d1723e4U,
  0x3b9e9ef6bdddbe35U, 0xbccbf29ebd0aed64U, 0x3d923164bda2f729U, 0x3d2752ae3dbad224U,
  0xbd134c1c3c2063fbU, 0xbdaae37a3d1b71fcU, 0x3d9c04a3bd8fab91U, 0x3d651ca03dc564c8U,
  0x3d60ed54bdf03d34U, 0x3dc65be4bd9dc7faU, 0xbd4105fd3d1d4d09U, 0xbc8ff450bd190d9aU,
  0x3d9fb6a53d4dea1eU, 0x3dfc3d743ad74183U, 0xbd7ee5de3d5379e6U, 0xbbdd2f4b3ce6607eU,
  0x3d6f79a3bd736683U, 0xbd758c75bc335d4bU, 0x3cf188b5bcdb48e2U, 0xbdad05813dcd5211U,
  0x3d1cd486bc01437cU, 0xbd6ea8c1bdc693c6U, 0x3d582399bd1336f9U, 0xbca7e4f7bd93fb3cU,
  0xba5f83f9bc830943U, 0x3d2a22083d21b27cU, 0x3db32227bcfc54feU, 0x3de039c5bd31e4c7U,
  0x3deacd77bdcbf1beU, 0x3dd6581dbde4dcc2U, 0xbd4c35903cf18f21U, 0xbdf6c15c3bf3895fU,
  0xbd8f19853de1dda0U, 0x3d1171663ded5151U, 0x3b54783cbdcbc360U, 0x3d9d4a7a3d5ad499U,
  0x3dd28deb3d0415f9U, 0xbd8e30afbd07f2a9U, 0xbd0c3bacbd5e5708U, 0x3d7347483dd2600aU,
  0x3d299f323d67faf7U, 0x3cbc72653db820f3U, 0x3c5f50283d065eabU, 0xbd65ca09bddcbf00U,
  0xba926916bdb64448U, 0xbd6d092dbda6f2a2U, 0xbdd71a34bd7a3a49U, 0x3dabeb8a3d5e60daU,
  0x3dbcce173c1daf79U, 0xbd0cfc4bbd26afdfU, 0xbcb0a4c93cbcf9fcU, 0x3d04b9c6bd7f9f96U,
  0x3cfb4d92bdaab009U, 0xbdc412abbd84d172U, 0x3d34a3b73a3e63acU, 0xbdb437ebbd501ff4U,
  0x3d434d073daf5fd5U, 0xbce6919cbdafe8fcU, 0x3df1c6dcbcc0e5c3U, 0x3d4fedf63cc99706U,
  0x3d3b49563cf3fcf7U, 0xbdbb62acbd874cd6U, 0xbdba878a3c9c335aU, 0x3d91345bbdd67e60U,
  0x3dbf0b163db6c2dfU, 0xbdb010fabd67e977U, 0x3d7bd3783de2713cU, 0x3cafd46fbd2dd307U,
  0xbd9f6f083df02ec8U, 0x3d986697bd3d712dU, 0x3d6a20f53d8ca53eU, 0xbdbb4dfc3d4f3ec4U,
  0xbdaf8c193db4e371U, 0xbcdb58d33bfc94cdU, 0x3db7d2c2bd23e574U, 0x3d6c1b993d82f75bU,
  0xbc956814bd5e21ddU, 0x3d6ce331bd65f458U, 0xbdd6adb93dd2ace8U, 0xbcd23ff13dc3e66cU,
  0x3d11cc763d7cffe5U, 0xbdb1f18c3d5550f3U, 0x3d0f5278bc563bdfU, 0x3d5edf7c3a88259cU,
  0xbd8244ed3d07d37cU, 0xbdca13a9bd85b0afU, 0x3cc91dbabd7d663bU, 0x3b5a28fbbce89b97U,
  0x3d29719abd8ed54cU, 0xbdaa4597bbe6cc5dU, 0xbd3f2f213dcd712dU, 0x37e477b03cb7b7b5U,
  0xbce666c33da89f1fU, 0x3dc46e63bd15c4fcU, 0x3da40a3f3da8b5eeU, 0xbd80991cbdbcfb04U,
  0x3d8f3234bd909c29U, 0xbdcb331c3cbfab96U, 0x3ccbca87bd444392U, 0xbc41d2243db1ae43U,
  0x3d430faa3d08d55bU, 0x3d0f10743c4065c3U, 0x3cc611c33c21b522U, 0x3d8e23f73d4ca7b7U,
  0xbdceb7303da3f5bbU, 0xbd5adc783d63087aU, 0xbda46da73c1c99b0U, 0x3dcf2ea33ceede53U,
  0xbb4ad548bbb2cfa2U, 0x3e00fac03d40288cU, 0xbba837393cb6f5ffU, 0xbdfddfb73dd0bf39U,
  0xbe0c63d8bd2f233bU, 0xbdbddd83bc7df8c2U, 0xbcb6cc5dbcb8dcf8U, 0x3d6bd826bdbe2fd1U,
  0x3d6cbda3be0d235bU, 0x3d6799e93da20e3dU, 0xbbea68f23dcf8735U, 0xbd29a0903e106050U,
  0x3c7a62c43b870360U, 0xbc3e7f573d091b95U, 0x3e1489663d254ed5U, 0x3db7d5bd3ccbc548U,
  0xbd14d94d3dacc599U, 0xbdd7cbfe3d9ee33dU, 0xbb63c6393d6e7376U, 0xbcc03b1abd405df7U,
  0xbc94d77e3ce943e9U, 0x3b5e2bd63ca6c7cbU, 0xbcf9b96d3d1c8a50U, 0x3d6084b5bca7467eU,
  0x3d7216643d428c83U, 0xbdcc2a01bca029fbU, 0xbcd09b2abc66e2f2U, 0x3dce55a53dbf81c8U,
  0x3e0e9c93be08634dU, 0x3d8810083bcf6cd9U, 0xbdc70bb0bd989c31U, 0xbc921d9e3c8ff92eU,
  0xbdc533683e043244U, 0x3d8b365b3dda8a50U, 0xbc63552c3d5ff5acU, 0xbc8c530dbd8e2892U,
  0x3b6a25893d0282d8U, 0xbd0faa94bd325816U, 0xbc9a04413c9b525dU, 0xbd5cffed3ca6179bU,
  0xbdc811893d2845a7U, 0x3ddac328bcf1b0ccU, 0x3d81f67dbdb6b8a4U, 0xba15b231bce0283cU,
  0x3db25e46bc0772f6U, 0xbd869e123ddbae15U, 0xbd6e19273d0d3709U, 0x3dcd9a043bd43031U,
  0x3d8686163d9c7578U, 0x3db68f2ebd956f8fU, 0x3c13e6673da83562U, 0x3dc6526c3daec789U,
  0xbd530b40bd1a203cU, 0x3d825684bd9bd653U, 0x3d6f6272bd3f5e61U, 0x3dba10433dae0871U,
  0x3d90b1fbbc1becfbU, 0x3db35abfbd999f6dU, 0x3daeb5f1bd7519d4U, 0x3c2b0cc53d166411U,
  0xbd650016bcfae2feU, 0xbd4a47e73dea4628U, 0x3c7a30b1bdde7438U, 0xbd20f6e83c8b4dceU,
  0xbd9623d4bd4b2b16U, 0x3d0e123dbd4178bcU, 0xbc0a57213d654d9aU, 0xbd264a0b3dbb19f9U,
  0xbd216fb1bd40ca71U, 0xbd233364bdf584a5U, 0x3d4f06a13d57f054U, 0x3d7a55e8bc61a944U,
  0xbb83b973bb75a924U, 0x3d24f06e3d5be3acU, 0x3d96da9b3d7e190eU, 0x3d85b323bd7a72a3U,
  0x3dc20b983db79d55U, 0xbc8b0e5e3dcb810bU, 0xbd31d5afbd2bf9ebU, 0x3a4a5a21bc2707deU,
  0xbd6f856c3d5e3fa5U, 0xbd87d2c5bd5003afU, 0x3c459a4fbcab667bU, 0x3da372cc3d1150f1U,
  0x3db9a46e3db7307eU, 0x3d086d633dd2449fU, 0x3c4db5e13d9e93e9U, 0x3cb8cc023d274c22U,
  0xbd54262b3d9885f0U, 0x3dcf7868bbe730bbU, 0x3d9099d43c58ef03U, 0xbdd23966bd859f93U,
  0x3dcb18a5bd45a944U, 0x3d9a9775bd6faf26U, 0x3b9f88f23d4924ecU, 0x3dd7c6f23d8d3accU,
  0xbdcc28c33d135345U, 0xbdb0f4ebbb6dc087U, 0xbd9727d83c176901U, 0xbc9dcfff3dc47f31U,
  0x3cc3bd8f3d682a68U, 0xbd9f9ec63cfe56aeU, 0xbdc57c07bc32d5d6U, 0x3b58b339bd8aae5eU,
  0x3d6da2ea3d009f72U, 0x3c52a66cbc8975e5U, 0x3bee8362bdc7e0a5U, 0xbcd707b03d1eb9e5U,
  0xbd86eff7bdc70a53U, 0xbd75b09e3d34919eU, 0xbd379ac53c367ddeU, 0xbc947d16bce75aa5U,
  0xbdbd7b163dcbd7bdU, 0x3cba5f47bda79668U, 0x3d2c48533c9cbbeeU, 0xbdace34fbd6ef602U,
  0x3d90e41ebce88fabU, 0x3d1be5d6bd683573U, 0x3c24b9bfbdc146ddU, 0x3bf59e9fbd00b963U,
  0xbd5b4b74bda8cfd0U, 0xbda2fd4a3bd74f3bU, 0xbd482b8f3da23f8cU, 0x3ccf39e8bd69aa4bU,
  0x3d856be43dc5ceacU, 0xbc648ba23dba4069U, 0xbd9f126a3cb4b32aU, 0x3d787305bdd22cc8U,
  0x3d1692b2bd75b118U, 0xbd5cc383bda66e58U, 0x3bf4ea74bcc5ffd4U, 0x3dcf9d9bbd67263cU,
  0x3b47adf0bd5c38c8U, 0x3d5e35cc3d1e5aedU, 0xbd6ca244bc492bcaU, 0x3dd76f523dd34f91U,
  0xbdd235173b2454ddU, 0x3dd52530bdbbdf1cU, 0x3cfa145e3c2dbc87U, 0xbd5fea09bd822f35U,
  0xbdb811603d953a1cU, 0x3c9ddef03c734a6cU, 0xbd92bfb93d4c1e2dU, 0xbd87a8c13d7d84ceU,
  0x3acb2b83bd82fcb6U, 0xbd9c7a75bb3507deU, 0x3dcebd1a3dc66bc3U, 0xbd0d7ccebd0184bcU,
  0xbd860f883d0f3a78U, 0xbce998153d371f4fU, 0xbb86cc09bdc8e26eU, 0x3d10286bbd630331U,
  0xbd420102bdba4afbU, 0x3bc7f6f83d67db7bU, 0xbdb5dd3dbdb1a927U, 0x3d82ad8b3d89bf63U,
  0xbda2f5c0bdcab709U, 0xbca8c0f7bcd901fcU, 0x3d4abb943c948d7fU, 0x3d99f3983d122a12U,
  0xbdb04616bc9310aeU, 0xbd04b8273d46a4e2U, 0xbd943fa63c1c423cU, 0xbdd2eca4bd4b825eU,
  0x3dd251a83d5455dbU, 0x3b83bf623cbd4589U, 0xbdd31ec73d983d9dU, 0xbdc7be123dc711cdU,
  0xbb7a63e13c0011a1U, 0x3c714aa93dcbefecU, 0x3d3c524bbddaa725U, 0xbdd070943d8a6732U,
  0x3cf4d1cf3d8d2bffU, 0x3daaa7e7bdbec5beU, 0x3c63a4c0bb76118dU, 0xbdc2512d3d70c9f4U,
  0xbcd03417bd8b2536U, 0x3c8cefca3d4afa7aU, 0x3d3af1493cae31ffU, 0x3b8210b4ba5b4a65U,
  0x3c1e9bb23b89e1d0U, 0x3b8aa357bdb9200eU, 0xbd06016bbd8b6d42U, 0xbdcb7ee6bcc309d7U,
  0x3d1664dbbd17ac75U, 0xbdcd9d6d3d307e2dU, 0x3db11ce7bdce82ecU, 0xbd0640a53d64825cU,
  0xbc56aba53d55cf4eU, 0x3d587d3ebda67e6bU, 0x3c264cfb3c1befc7U, 0x3d0cc52d3c83db9eU,
  0x3d76a1013d740c8aU, 0x3dabf79e3c4c680bU, 0x3d8880213da6e655U, 0xbd476afabdc7de33U,
  0xbd3f749bbdbf8b9dU, 0x3d9a9305bd5e9ef1U, 0xbd8a2632bdb59b02U, 0xbdc0ab833d8ecc34U,
  0x3d873023bd23667eU, 0xbcc02a8b3dbbfb82U, 0x3d12b6e6bd30ea57U, 0xbc3768cf3dcbd4dcU,
  0x3daea601bdaa5680U, 0xba9bf2b93d91bae5U, 0xbd326a04bc47733eU, 0xbcbff9a8bd6ced02U,
  0xbd8217513d087684U, 0xbd827a343bea0d79U, 0xbd944b553c217be3U, 0xbda08a86bdc9d4aeU,
  0xbdc3075ebd937a1aU, 0x3caeb8933d58640cU, 0xbcbfeb2ebd4c27a6U, 0xbdca30d23d8b6da1U,
  0x3b8b96cd3db37955U, 0xbcb13c5dbd1d0f12U, 0xbdadc6a33b9f6144U, 0x3d7a0c6c3dc9efceU,
  0x3c8f3cc2bdb00832U, 0xbdd858e9bdb1faa2U, 0x3d772909bc4ddfa0U, 0xbc9fd063bd245407U,
  0x3dcc3ee2bd9bf5eeU, 0x3dcc8c9abd723869U, 0xbd201234bd41165eU, 0x3d8e2012bdb5bd69U,
  0xbc8bf938bb7482f9U, 0x3d643d0abc62f0fbU, 0x3d2f62b7bd75dc32U, 0x3d946189bca2b5acU,
  0xbd2de77cbd05cec7U, 0xbd0dd56c3dae6f94U, 0xbdbea7ff3d919cb0U, 0x3d5e69803d40beb0U,
  0x3d237a933d9fe3f0U, 0xbdcff6f7bda91a68U, 0x3da12393bce0f8f1U, 0x3d00e790bd8dc012U,
  0x3d1acb69bdbb3f07U, 0xbd4005a13d7be2e5U, 0x3d5ceda6bd082c46U, 0x3d2b4133bad73e29U,
  0x3d0f4ffa3cce6115U, 0xbc463f57bdae496eU, 0xbd7997afbda9234fU, 0xbcb030b6bcb86421U,
  0x3d9057b3bdc6398aU, 0x3d85a9d83dbeb4dfU, 0xbdd34f71bda58954U, 0xbc35c5a2bca3359bU,
  0x3d7c0e063d26a432U, 0x3d9b47c93dc41f26U, 0x3c9729e5bc60dbbaU, 0x3ca9a499bae2a41fU,
  0xbdbfc0ea3bb32ae2U, 0xbd707007bc83360cU, 0x3d222f6cbc1de501U, 0x3dc86d32bc08c1dcU,
  0xbda0d575bd49f120U, 0xbd15d3643db4816bU, 0xbd81f572bd8dc020U, 0xbd9f839a3d4eaaf5U,
  0xbd76898cbcd03618U, 0xbd9b71073d9d49d7U, 0xbddb172cbdd5fda5U, 0xbd6585033d756f8fU,
  0xbdbc8ae7bd9a7e4cU, 0xbda264b33d2ee798U, 0x3c3c65213db5ba1eU, 0xbd2d31ee3d0788b4U,
  0xbcafc5f23cd70c17U, 0xbcb6179dbdcffa07U, 0x3db3f95c3d8462aaU, 0x3c88b6ca3d093fa9U,
  0x3d1db99cbd3295d1U, 0x3d7ce5b23c8b1f0bU, 0xbc9f2b373a9cc183U, 0xbdaf29dabdaa30ccU,
  0xbcbe55233d6aaa16U, 0x3d563c6dbcc46facU, 0x3d444cae3d0b6c3fU, 0xbb1e7154bd172a1dU,
  0x3d8a31dabdbef2e2U, 0xbd953a89bda0b617U, 0xbd3afc72bdcc186eU, 0xbd378a633d83d933U,
  0x3d7813f3bcca6a4bU, 0xbd8455b7bc255123U, 0xbdd3471f3d212ea9U, 0xbd6685ea3d60f442U,
  0x3d7ab478bdb920abU, 0xbdc3ee283dab9bcaU, 0xbd8fccf6bb036e53U, 0xbda1d40bbdcff834U,
  0x3d0e213e3daa5ba6U, 0x3cdb8241bd1dbd79U, 0x3c9c79973dc54804U, 0xbdb41a56bd07f148U,
  0xbcbaa4883d9da749U, 0xbd8e282a3d69bf1cU, 0x3c8991c73dc922c6U, 0x3db3bb97bdb73206U,
  0x3da431b5bd4bbbd5U, 0x3dae31e0bb1acaadU, 0xbd9803883d92c4d4U, 0xbd9a2b213d5b8664U,
  0x3d1ab74cbc768580U, 0xbbf817e9bdd286a6U, 0x3dc9faafbd49e277U, 0xbdb10ba0bd58596eU,
  0x3d1a23d43db86a1bU, 0xbdc10163bdb8e1f1U, 0x3d965304bd250ad8U, 0x3d43a989bd2dae67U,
  0xbd557fafbd1fe9d1U, 0x3db39f103d1c304fU, 0xbdc18a6ebd45891bU, 0xbda4b74ebd212845U,
  0x3d5c61503c7aabe9U, 0xbd9b8391bd31a5ffU, 0x3d05c5b33cae95b8U, 0xbd9d0dc33abb7c17U,
  0xbd9e8ff4bcf3b140U, 0x3daa23a8bdac8557U, 0xbcab606b3da81d92U, 0xbd539237bdbdf62fU,
  0x3b83dd6fbd8b4160U, 0xbd49f2eabdd2f12cU, 0x3dbff0a8bd4c299aU, 0x3d03d1b93cedf9d7U,
  0xbb0285ad3dc1202fU, 0x3bb0ba14bbf80980U, 0xbc6f76013cd11748U, 0x3ca5e834bdb8f5e7U,
  0xbc840724bd33dc94U, 0x3dc81286bd7c4a83U, 0x3da2a2edbbea5b89U, 0x3cd1c0f33a8c182cU,
  0x3c599c323dc60b40U, 0xbdb4e65dbdad0174U, 0xbdd07359bdce3995U, 0xbd703fe1bb19eb93U,
  0x3d4449ad3cdd971aU, 0xbdb9dd143dab7f30U, 0xbd9666673d923abaU, 0xbd05e54cbd262d92U,
  0xbca0e5d7bcbd7168U, 0xbd8ece6f3d6aa006U, 0xbcf04f283d798d76U, 0x3d818a103d9ab2e6U,
  0x3cada9a7bcf573f5U, 0xbc5368c1bd3d5109U, 0xbd2e1b8dbce985ccU, 0x3d510ae3bab67ba1U,
  0xbc807c5cbdcfc06bU, 0xbd5623043c526008U, 0x3c88c927bdd64b6eU, 0xbd854b3fbc4f2e3cU,
  0xbd2056bdbd9468c7U, 0xbd190554bd1995a9U, 0xbd0fbc29bdc00c23U, 0xbd50f6023caa11e1U,
  0x3d6094e13d99e208U, 0xbc9e4ec7bdc42bb9U, 0xbd61624fbd2cafe4U, 0x3c8fed283cfc78d2U,
  0x3d2f0e87bd270265U, 0xbd57b5613da8fa98U, 0x3cae8035bd4467a7U, 0xbd6ab6e43d9d0fbdU,
  0x3d1594283d150304U, 0xbd9a8c8c3d5d4d28U, 0x3be3f023bd9427c0U, 0xbdc9bbdd3dcf39e4U,
  0xbbc86cb93d5f456fU, 0xbd88b649bdabe050U, 0x3cfcf1223bc81842U, 0x3cc06ed4bcba0631U,
  0xbd980a1b3d59138fU, 0x3d9bf15e3c791de1U, 0xbd1e5ccb3d55fdcbU, 0x3d0fe3c8bd53471fU,
  0xbdddda7bbda99c78U, 0x3d29af2d3dbd41b5U, 0x3d36bbf3bdb5176aU, 0x3db294ebbd86fb9eU,
  0xbd6684883db22b23U, 0x3d764e7d3d10c956U, 0x3d6a7615bd2077cdU, 0x3d5b9e08bcb0834eU,
  0xbbdf0dcc3b4d7e05U, 0xbbc10814bd21f0f6U, 0x3cfe572bbd93d2edU, 0x3dc306d9bdc1d322U,
  0x3dbeb9543c85cbdbU, 0x3d8b6f2fbd0c0248U, 0x3d40a20c3d841874U, 0x3d3994e53d672667U,
  0xbd2255c53d5ad31dU, 0x3d82db143ce32ef4U, 0x3d9428813d61b09dU, 0x3d2d1312bd9bdd56U,
  0xbd6a122f3d901e79U, 0xbc1f116cbd3966b1U, 0xbc9c4d2ebd817492U, 0xbc0188cebd99fc73U,
  0xbdb3bc233c991c7eU, 0xbc93182a3d40b434U, 0x3cebd422bd19253dU, 0x3d5c95aa3d6b1103U,
  0xbdddde51bcb1f8ddU, 0x3d93e2fe3d12e203U, 0x3dcde4ec3d9294d4U, 0x3dade6233d5368eaU,
  0xbd08c4c8bd9d4809U, 0xbd878e313d9c38f4U, 0xbd429472bd0736f9U, 0xbd6bfcd1bd260bfcU,
  0xbd3cbddabd9d1e3fU, 0xbdc62e17bdc1c3e5U, 0xbd269cfb3af7c3b4U, 0x3d529f3cbdd30a5dU,
  0x3dbaaec5bd7bfa12U, 0xbda4902a3d99d3daU, 0x3cd10b7cbb850e11U, 0x3d17dd7cbaa9c2e9U,
  0xbd98de743cdf8754U, 0xbd91c86f3d0acfcaU, 0x3da172c73d819fe2U, 0xbbd21bb63d96be71U,
  0xbddaec8abdb43b36U, 0x3db693f43c21dcc3U, 0x3cad8273bdd13a2aU, 0x3d9ced4ebd5928ebU,
  0xbd6471193d0d435fU, 0xbd62f12bbd48f4d5U, 0x3b00b771bd0dc4e5U, 0xbbe9dc4bbd21fa5cU,
  0xbdd4a6dbbd447ef5U, 0xbd3bd59abd16ef41U, 0xbd9bb0b9bd6275c5U, 0xbc86a9edbbc74869U,
  0x3d5cc3f43bc86529U, 0xb8f44051bd0ced58U, 0xbd146ad03da7c38dU, 0x3d928a29bd81bde7U,
  0x3d2037453d28dbb0U, 0xbc8307693b158fd1U, 0x3ceb343d3d40a653U, 0x3d28146abd948420U,
  0xbdba2df9bb225d5cU, 0x3c8c317cbd523baeU, 0xbdb1210cbcf486c4U, 0x3db13dd1bdaadfc5U,
  0x3c06ffaebd6a41e1U, 0xbc2f58ddbcb999eeU, 0x3d809f5c3bfea7ecU, 0x3d9c9ec23d741039U,
  0x3cbaa67e3d6b7a5dU, 0xbbbcecd03dbfb34bU, 0xbccc90e9bda31ed9U, 0xbdd9db37bda80c5bU,
  0xbc83e3153ca9a09eU, 0xbb85bebc3dbb4121U, 0x3dc3f4e93dbda052U, 0x3c33cea83d878fb3U,
  0x3c6cea4c3cde9c51U, 0xbdbba601bdae111cU, 0xbd4094aebd0c875bU, 0xbddbcf1dbbe0f49fU,
  0xbdc2c9a73d528922U, 0x3d2fc66bbb9c8260U, 0xbb2b8567bdd25ef4U, 0xbc7b1d813d254e69U,
  0x3c970d483d33a881U, 0xbd6dbb46bd153559U, 0x3d146a123dcd22a1U, 0x3c4da6f73d9991fdU,
  0xbd8f68083c708e4aU, 0xbdb664ca3d31ef13U, 0x3dc2fbb8bc23a680U, 0x3c66c054bc9504e8U,
  0x3d822cefbd5ae82eU, 0xbd18dfa0bc85285fU, 0x3d2ced94bd85d1cfU, 0x3ca02d993bd54f9bU,
  0x3d0f7085bd882516U, 0xbc30f6a4bcd1db5eU, 0xbde06bcfbd407d93U, 0x3dc50a293bb9b771U,
  0x3c59c9283d9b49e1U, 0xbd8f65b2bdb135bdU, 0xbd19fd2a3ca7d709U, 0xbd311a5f3d642679U,
  0x3cd9fd353d8cf71cU, 0xbd664dbebc05cd18U, 0x3d74fcb83dcba291U, 0x3c305993bd607c02U,
  0x3cc8fd963d5b646eU, 0x3d0c97ac3c741a74U, 0x3c4d9c09ba7b5702U, 0xbccdfa863b5b15c3U,
  0x3c9585cebd218257U, 0x3d7ea9c5bd7945c9U, 0x3d3a225abdcd0654U, 0xbdca3b8c3d8adf17U,
  0x3d893a2c3d9a0d2fU, 0x3cdd2ccfbd736a41U, 0x3ce66c58bd1bbeafU, 0x3dafc197bd781a3cU,
  0x3da3baec3d87f06bU, 0xbd309426bd98b1ddU, 0x3d9d2966bd2e46e1U, 0xbd46c27ebc56e1beU,
  0x3d84ae0cbce55c50U, 0x3b6459e5bba3cfa4U, 0xbccd2b0bbd11ebe3U, 0x3d7ba064bd9acec9U,
  0xbda1870a3b81c65fU, 0xbc8ad1dcbd7e1e47U, 0x3dc5b5563c177e37U, 0x3d5f36903d95ddb1U,
  0xbd032a27bcae62e7U, 0xbc8371f7bdd262a0U, 0x3d42d9b43d23bab7U, 0xbd973ab03cc92e43U,
  0x3dc3dc88bd039982U, 0x3d998757bd993266U, 0x3db050593d6b075aU, 0x3d81e74bbd67b7d6U,
  0xbc129e5cbd65ee10U, 0xbdab2ea13d3e13a3U, 0xbd8e48efbdb400cbU, 0xbdb4a4e93c61b827U,
  0xbdc04112bd15d726U, 0x3d4bd9923d9ba35cU, 0x3d68c240bda46dc4U, 0x3d866447bdda3c03U,
  0xbb4e4dcabd2b398cU, 0xbdc97b3fbdcc6898U, 0x3add3e273d80eac8U, 0xbd6a069fbd0bd88dU,
  0x3c85a591bdc18c77U, 0x3d4e2902bd95f44eU, 0xbd0790fbbdba0f2fU, 0x3cfe43563d610e22U,
  0x3b486e56bb637b19U, 0x3dbf6a3e3d2b7a6bU, 0x3ce19daa3d2e0e43U, 0xbd87b59e3d165541U,
  0x3b73aefebd63616eU, 0xbdcd04193dccaa86U, 0xbc8d39e5bc43d9d1U, 0xbd8038c9bd909e39U,
  0xbdc7fd2dbd2d1070U, 0x3d7ee185bd4e79e1U, 0x3d827737bacfd9c6U, 0x3d9956f43ba65b92U,
  0x3d01a5f4bdb19babU, 0x3b0e43843d2368b8U, 0x3cf4be323d0b3c77U, 0x3dcda731bd93422bU,
  0x3bc9c3e13c31bdcbU, 0xbd4afeebbdcba39aU, 0xbd83544d3c8caeffU, 0xbd0107fabda3dac3U,
  0xbcbd8f53bd4293acU, 0x3cbf878abce7e0c6U, 0xbd08a05e3db19e38U, 0xbcc1b688bdd1498dU,
  0xbdae9901bd879f8dU, 0x3d9ce744bdb561bdU, 0x3b84edf23caa3a9cU, 0x3d5ff1683d64bbfcU,
  0xbde4668c3ce25d70U, 0x3d71174c3c768dfbU, 0x3dcbb6f5bdd95ae3U, 0xbdc4958e3d875dfaU,
  0xbd28a324bcd32c11U, 0xbdd4f6f3bdc6ac1eU, 0xbb0031783c2d7855U, 0xbc78cdedbdc811e8U,
  0x3d4fd8ccbdda391fU, 0xbd9c18dbbd09966fU, 0xbcf2b0f83dd09366U, 0x3dbbfa343d8ad6b3U,
  0x3cbd07bd3d18b9bfU, 0x3cf1df9ebd094167U, 0xbd20456d3dacf711U, 0x3d1571edbcb986a2U,
  0x3ae5aa72bdc7a9c2U, 0x3d7f7ce3bca39fb9U, 0x3db506b73d85c349U, 0xbd0cee1d3d8830daU,
  0x3d3f3fd63c9ca311U, 0x3d32a9323bc5ce84U, 0xbd967659bc04d0d1U, 0xbd9862b13d345b2bU,
  0xbc45037e3c28af3cU, 0x3d87eef53cfa09ddU, 0xbdaa69353d0f7e78U, 0xbcd829de3cece9b3U,
  0xbd595ba9bc863032U, 0xbd22a8973d99c283U, 0xbd8fd8bbbdca15c9U, 0xbd8283d9bdb7d8b2U,
  0x3dcedb703d8fd51bU, 0xbddd6ba7bd6e5190U, 0x3db0186cbc82f305U, 0xbd47d8dcbdccd8a3U,
  0x3bdbb471bd0353efU, 0x3b2f763bbb15b56fU, 0xbdb99fa1bc648cd0U, 0xbdb409743dbd3d9fU,
  0x3dc86571bdd06a19U, 0xbde5b6f3bc6cd0cdU, 0x3d92b7f23c32a424U, 0xbd4aabfcbc242d2cU,
  0xbd95f9cf3c2f9598U, 0xbd695f25bdd68d6eU, 0xbdb4460fbcf21c0fU, 0x3b5ab653bd61605bU,
  0x3d286ecb3dc16915U, 0x3d25bb8d3c8de08dU, 0x3d0886eebd5a9d49U, 0x3c3c3083bcd25d7dU,
  0x3d4cc24f3d5b9c37U, 0xbd7569223d55168aU, 0xbbfff4a5bd1757caU, 0xbde1695a3d748d4cU,
  0x3d48e62f3d5c9fb5U, 0xbd86673b3d94fc11U, 0x3c3dc9abbd89043dU, 0xbda84cc0bd55c39eU,
  0xbd5a249abd0bcc34U, 0x3d2e7640bd8a6ccaU, 0xbcd385753cae0185U, 0xbd8e85043dc68405U,
  0xbba64ac6bcd3c249U, 0xbd5b2e8ebcfec88bU, 0x3db9e201bd84b73bU, 0xbc6547f9bd072813U,
  0xbdc977a33daaec8eU, 0x3d773567bcaae7bdU, 0x3d7a0ccb3c368e71U, 0x3da9ea8a3c1c3a04U,
  0xbd7a7f04bd065418U, 0x3d8fc463bd8f16daU, 0xbc6b88aabd9f999dU, 0xbb67b202bd1eb2e3U,
  0xbdb28f2e3d9a36a8U, 0x3d044d253cae8dbdU, 0x3dc62b0a3d4c26d9U, 0xbdceeba0bb06eb62U,
  0x3d0479bd3d895b76U, 0x3d46cf683d0c9b4cU, 0xbd25a2f63d184d97U, 0x3d941df03d84ee16U,
  0x3cce59d7bca83a6fU, 0xbce6af36bd055628U, 0x3d632223bd79db19U, 0xbb9a8b02bc1b6387U,
  0xbda6f786bc6c4111U, 0x3db5e57a3c83d614U, 0xbdc2eb063dc1be16U, 0xbd5635073d68d213U,
  0xbd38c3b13cc0a6feU, 0xbcfec4093d8e6674U, 0xbdabe0f4bdc67ea7U, 0x3dafd862bc81b37cU,
  0xbc85a41bbdb94545U, 0x3d811ec4bcb39ca0U, 0xbd326422bd919061U, 0x3d1826803bb3cbe7U,
  0xbd125936bdb49b88U, 0x3ca93a67bd342416U, 0xbd9d17ea3d857a37U, 0xbcd625eabdb3636dU,
  0x3cac5abe3d66cd2dU, 0x3cbfdcc73d95e657U, 0x3da140023d83e7f1U, 0x3dc45f433d239effU,
  0x3da9a8a5bba47057U, 0xbd7587203cf613eaU, 0x3cc7c9883d60421dU, 0xbc5ad281bce7899aU,
  0xbd8ea8ae3d976c94U, 0xbda7e33b3cb497e8U, 0x3a8bdff1bc055380U, 0x3b04a4a73d38f7fdU,
  0x3c31fed53d2d6e5fU, 0xbda4729d3d041bdbU, 0x3d6c2eb9bcf929e5U, 0xbdca729f3d8f0e16U,
  0xbdc6772bbd1a71a6U, 0xbdc7bb41bcbb3794U, 0x3dcc21e43d236e4bU, 0xbdd39cef3c475ccaU,
  0xbca674f5bd850708U, 0x3d805048bd4f974cU, 0xbda071db39b93115U, 0x3d60801d3d9ec86eU,
  0x3d45d411bd046bbbU, 0x3d0fcc7dbd97c6a1U, 0x3db1eb57bd8264e3U, 0xbcc3de6f3d94ba6bU,
  0x3b7d828e3d9524c1U, 0x3dbf0e873ce384cdU, 0x3d52156f3d8c7a64U, 0x3c49edeabd29ec3dU,
  0x3c9a17643bcb3497U, 0xbcc978c33cdc684bU, 0x3869b3bb3dc9accdU, 0x3db280f5bdc24725U,
  0x3d80d5afbcbe8178U, 0xbdb7a8573d89521aU, 0x3dd0ff893d26e931U, 0xbd28c0323daf6570U,
  0xbda07717bdcf91edU, 0xbcc4648bbddf87eeU, 0xbd80b3d8bdd08120U, 0xbdae7efd3ba7bf18U,
  0xbddbcabcbd8cfbebU, 0xbb4082e03d154153U, 0xbdbcb746bc985910U, 0xbd1caebb3d2ddc93U,
  0x3d7a7bcc3cda21a0U, 0xbdd8a6f6bc8ec033U, 0xbd748d91bd4ec9dbU, 0xbdaf37d9bd3b6cf2U,
  0x3dbc03b63cb96027U, 0x3d8f01b63c045e8cU, 0xbc8003d73d83ba07U, 0xbdbe5a5ebd82b869U,
  0xbdcc9c97bdb5a1edU, 0x3d995939bddb99efU, 0x3d6c9b253ce23f2aU, 0xbd6a1144bd52fe4bU,
  0x393d87b03dce7deaU, 0xbdae080cbd1144e9U, 0x3d4beb463c37a989U, 0x3dc2b1ba3d97f8e5U,
  0x3cbd36d7bd2e2251U, 0x3d8082fa3d7c09e8U, 0xbd27b15abde270ebU, 0xbd792b36bd8c062dU,
  0x3daaf0a1bc86752dU, 0x3bd77435bddc1fd5U, 0xbd4ed9f63d9935a0U, 0xbd232582bcae0299U,
  0xbbb05a51bd05fc94U, 0x3da75d233ca49c9aU, 0x3cd087d7bdbbdca4U, 0x3d8f733fbdb7bb2cU,
  0xbddc7c7e3d6913a4U, 0xbd0a3c06bdb9a6dfU, 0xbc8a54223d5cd5d0U, 0xbda28cd6bd3e0f74U,
  0x3cf87efdbdaf5811U, 0x3d9c3d46ba1dcb1dU, 0x3bcf2ffb3d8b5a90U, 0xbd2e9a95bca16cf9U,
  0x3d830c8dbc7ebd74U, 0x3d6a3edabdbdca3cU, 0xbce64811bd9b89f4U, 0xbd81788ebda865a6U,
  0xbd7e3eb23d6ef3e8U, 0xbc89de28bdd6209aU, 0xbcf54fdcbdd5f026U, 0x3dbda7343dc62551U,
  0xbc26feedbd7fa5d8U, 0x3bbc2bd23d5ebb1aU, 0xbd9d26d83d13bc12U, 0xbddb4ed93bd4a413U,
  0xbd2332f73c9777ebU, 0x3cda9f303cb24ebaU, 0x3da8879a3cb70935U, 0xbd38de52bd9e7304U,
  0x3d848272bd6133ebU, 0x3bf118c23cf50392U, 0x3d4d47d0bd587c8aU, 0xbc686b2f3d49fa86U,
  0xb8772760bb5ca941U, 0xbdb97b523c22de0bU, 0xbd8a4613bcbca140U, 0x3d2b683f3d577222U,
  0xbd310f5fbd92ab6cU, 0x3dc7150a3d87ea83U, 0x3d06862fbdc0e1baU, 0x3dacf7cc3d435d8bU,
  0xbbfe58ed3d8dd94aU, 0x3c4a73733cef0527U, 0x3dc5bc03bd4c9d01U, 0xbde509f3bbe968c7U,
  0x3d90d983bdcffb8eU, 0xbca1b15c3d068fa1U, 0xbce0aaa5bda0f628U, 0xbc13b25abd64ebe1U,
  0x3cdcad30bda78697U, 0x3db656e03da3c0acU, 0x3d5914b73d5b5b9dU, 0xbcfbd8263abca83eU,
  0xbdcaa4783d213ad9U, 0xbd1deb5f3cf3b2c6U, 0xbd7d06fcbd306d26U, 0xbd73b2eabdc5e0a7U,
  0x3d3eaa0dbdba859eU, 0x3d340d50bd178d26U, 0x3d14ec3d3ca017f2U, 0xbdbb6623bbf339bdU,
  0xbbb43ff6bdbfd635U, 0x3dbbf06ebde53631U, 0xbdc6b1ef3db2014eU, 0x3d672119bc4f84f9U,
  0xbdb4b7e7bd4c58c0U, 0x3d395b473d5bcc3dU, 0x3d015759bd7f8ba7U, 0xbda9720bbd701361U,
  0x3baee65f3d12357cU, 0xbcf7901e3cf3ad78U, 0xbbc122583d76b32eU, 0x3dbf6dadbd424f82U,
  0x3d97203f3d4ff22dU, 0x3d101eafbdae6112U, 0x3c4dca5abda8cebdU, 0xbdcbf8b6bdda6d46U,
  0xbd82cf9cbdc8a3adU, 0xbcd328123da1496fU, 0xbd9d92aa3c7ca98dU, 0xbd0751263bf6874aU,
  0x3d71ee4abdad8877U, 0x3a657bc6bdac1b6dU, 0x3dd02780bd4ab317U, 0xbd45e3fdbb878c48U,
  0xbd80d308bdc6d20bU, 0xbdb1dd2c3d1e9e51U, 0x3dad6dfc3d8df270U, 0xbd4162dc3d00fb06U,
  0xbde368dc3d9a746dU, 0xbd77d707bd4314a7U, 0x3d2e3bab3d55a5abU, 0xbc0ad9ee3c886fb3U,
  0x3cf7d8853d9e9434U, 0x3dac9b663d8d653cU, 0xbd8f13e9bd392203U, 0x3d3c3c72bdd40dcdU,
  0x3c340814bd13b86fU, 0x3dcf20333d9ecb38U, 0xbdc45b6dbc8a846fU, 0xbcc19e293dcebabcU,
  0x3cb9b1b8bd95221dU, 0x3d8eec02bb646150U, 0x3dcc4046bd0b8239U, 0x3ccdfcf23dcc4f1fU,
  0x3dc85eedbdb674a1U, 0xbd30c2ebbc6b9a2dU, 0x3cff6b83bc4a93b5U, 0x3c9d490f3dd05ab6U,
  0xbd23b804bc0b0f3fU, 0xbdb68fd5bd207c26U, 0xbde2a50fbdd1b36dU, 0xbb5a41cf3d91a9a8U,
  0xbc90a85e3d8185adU, 0xbcf40c78bd3cddb1U, 0xbd10d2c73da9c76dU, 0x3d731a5d3d744eafU,
  0xbd6c98a3bd5a92f1U, 0x3db435803cab4e6dU, 0x3d1c54abbdb35d1fU, 0x3d23c084bda9c6d4U,
  0xbdac1b0fbdade279U, 0xbcd3aad1bd1c15d9U, 0x3dbbd9ee3d7f1a90U, 0xbdca902f3da517b1U,
  0x3d0004c4bd568aa5U, 0xbdd53c14bc370269U, 0xbcaac817bdb8b65bU, 0x3dc87118bde75290U,
  0xbd29833dbdde9d9fU, 0xbdb362b0bd70dfadU, 0xbdc3cec83bd0d996U, 0x3dabf7d4bd4fba38U,
  0xbc4ba156bd998070U, 0xbdb3e20abc61c681U, 0x3d616906bdea120fU, 0xbd5427f4bdc2ab06U,
  0x3d349b793d963a05U, 0xbd8084773c14301cU, 0xbd870fabbdbe58f8U, 0xbd81389c3cd959f3U,
  0x3dbd999a3c8bc1feU, 0x3d104b1f3dc51221U, 0x3dc64a633d9a7c4cU, 0xbd9f0f133d91ee0aU,
  0xbdb7ec18b7ea2699U, 0x3ca508373c80e4faU, 0xbd8de6223c86a09aU, 0x3d2e03ed3d03606eU,
  0x3c53d508bc5600beU, 0xbdc4c0ddbd7683d7U, 0x3d0b7237bd437dcfU, 0x3dbd838bbccc4933U,
  0x3c8dc2bebdcb5f3dU, 0xbd92513e3dcfd306U, 0xbc5590fd3da64ef4U, 0x3c8e5999bc5d69adU,
  0xbde102ecbd25562eU, 0x3db7edf93d7c5d96U, 0x3ca064fabd0fb71fU, 0x3d7a2b6f3d16405eU,
  0xbc93cda13dc7d952U, 0xbdd3bc303bba20f7U, 0x3cb9efe83d23909aU, 0xbdbdacc53cfe537fU,
  0xbde9142b3db3239fU, 0xbc828e4bbcca52c4U, 0x3dabada1bb8a7415U, 0x3da24f7dbbf5db4dU,
  0x3da4f8b13cc363beU, 0x3c6ecdba3cf5e315U, 0x3d467ca8bc958d48U, 0x3d9d881dbd947d0fU,
  0xbdc2edbf3d023ffaU, 0x3cdf04f7bdc5f162U, 0xbd5a03983c7117c0U, 0x3c9ceedabdbf177aU,
  0x3d986844bd6240c0U, 0x3d316cdfbd55cb4aU, 0xbcd20649bd706d4bU, 0x3d9c9c5a3d658cb4U,
  0xbd9f85dc3dbdc826U, 0xbb0e65fd3d81982cU, 0xbd132ac73d6a2d88U, 0x3c909e2ebde8803aU,
  0x3d6b8028bd6432a4U, 0x3db9ee0fbd9161aaU, 0xbdcb8c76bd0fccfcU, 0xbc2a72753d22775aU,
  0xbd96188e3dac6e4dU, 0xbd8bc9b13dc90ca1U, 0x3d5100653d8ab944U, 0xbc472622bd897c6dU,
  0x3d90ab773cb64eb7U, 0x3b6e969cbd929441U, 0x3c29e12bbc8a2525U, 0x3d3542ad3d85ff22U,
  0x3d0392d33d87b659U, 0xbcc2f66e3c84885eU, 0xbabc51053daef9aaU, 0x3d711d11bd88b70cU,
  0x3d6dd69ebc0fc98dU, 0xbdb1dc44bc13fdadU, 0xbdd0052639b86ec5U, 0x3da2cb863d8e4510U,
  0x3d8e841fbd834c67U, 0xbde52803bd8eb3b1U, 0xbc491587bd5224ecU, 0xbdd59bdd3dc681baU,
  0xbd8b05763d566862U, 0xbdbcc1e23d918135U, 0x3ca80b6e3da34d2aU, 0xbdbc30e5bb58303dU,
  0x3cbd5041bd729b0cU, 0xbd8e49d93da0a343U, 0xbdd6c3213d8f15c7U, 0xbda846c33d25aa1eU,
  0x3c697b1c3d1269d3U, 0x3d1a7e26bd12d312U, 0xbd0846e73d93d1bbU, 0xbbece0343d68da1aU,
  0xbd0a5e9d3dc49b0dU, 0x3da5b7693d4cb4a3U, 0xbd153989bd96e387U, 0xbd4e7f79bda90a64U,
  0xbda2d5fbbd8e8866U, 0x3c9615f03c389947U, 0x3d1cf99cbaa9023dU, 0x3d5f576b3dc342ccU,
  0xbc327da03d91867aU, 0xbd262c58bd275be8U, 0xbd8fb7423c7cc743U, 0xbcd5d9ed3d258c2bU,
  0xbdb1c024bc943ebcU, 0x3d8841a6bcc7b38dU, 0xbd597d6dbd061945U, 0x3d940e513daafaa7U,
  0xbdc1caf6bdd9e710U, 0x3d0a8d7ebdcf46eeU, 0xbd1381653dd061f4U, 0x3da36d193d71235eU,
  0xbde27b0ebde3e2baU, 0xbc3c7d863b96d6d3U, 0xbcd5439cbc2343c1U, 0xbd5815063ce68a15U,
  0xbd66bf11bcfd6ef5U, 0x3d2370c1bcdb16e6U, 0xbde51cf13c702571U, 0x3a2f4bffbd20212eU,
  0x3b3017863c44a17aU, 0x3d87ee0b3cf6c2a6U, 0x3bdeb0673da6fe0eU, 0x3d6bdaee3d3e3581U,
  0xbd5fa8e43ce4b70dU, 0x3d93b0c0bd45aca4U, 0xbd9d7ee7bd0f1b00U, 0x3c9631d1bbd6f75eU,
  0x3d266392bda2e901U, 0xbda4772fbc476db6U, 0x3d75f57f3cfe3d42U, 0xbdc743803d4aee68U,
  0x3dbea5dbbd86ea32U, 0xbd82f6bcbda1f358U, 0xbc464244bc4a9695U, 0xbdc78c67bc29eba6U,
  0x3cfb71f3bd1481ffU, 0xbdcc8223bda54413U, 0xbdae03dfbd08aaf7U, 0xbdcf5ee3bd5fdbd6U,
  0x3ce088883cdbf6faU, 0x3daa9d9d3d01a22bU, 0xbd5884c9bc2b31d6U, 0x3d3a1a42b92f8209U,
  0x3bb486e6bd1c7969U, 0x3d6ede673d80c73fU, 0xbcc9eba83dcba72aU, 0xbd90473cbc2178abU,
  0xbceb43293d870accU, 0x3ca44dc53cfb1a00U, 0xbd6eee79bde4ec24U, 0xbcb5824b3d897b23U,
  0x3caf04793daaa86aU, 0x3d967592bd8b321aU, 0xbcfdb09cbd123a55U, 0x3dc53c623bdfac9dU,
  0xbb6b6091bd1bcf44U, 0xbd4e5d77bc215050U, 0xbd07c0cebd572d41U, 0xbb89a84dbdd084f3U,
  0x3d27aec1bd531bfdU, 0xbd9ceb313d8375ceU, 0xbdc0c9e9bdc19d78U, 0x3ac0d53e3cb00df4U,
  0x3dc204a3bdba0ce3U, 0x3c0f5964bd9edc2fU, 0xbdd2ea67bbc67c35U, 0x3bf93c84bcf178e2U,
  0xbd4e2a443d4bedd9U, 0x3d4a20a03b3ee030U, 0xbdc8d08ebd28dadfU, 0xbc6cd0f83cebe83dU,
  0x3c9012e0bdc7ae60U, 0x3d5adb44bd9c91d9U, 0xbd48490cbc238274U, 0xbd0ae6453dc8ed67U,
  0x3b7da2c8bdb0f47aU, 0x3d5ab689bde39f59U, 0xbb8ffb31bd1177dbU, 0xbdd74b913cd400faU,
  0xbd1e39c3bd3b70aaU, 0xbd908898bd595ae7U, 0x3dbd31183c9bc532U, 0x3d40ec62bdb183e7U,
  0xbdccdc00bd44eff9U, 0xbd111e82bd31b8cbU, 0xbd5842c43d71ed4fU, 0x3d8748233c8bf5dfU,
  0xbda504f93dbbfd9aU, 0xbd8656b83dc93fa2U, 0xbcad413ebd7d367dU, 0xbd824ce73da0adc2U,
  0x3db052fb3d2e265aU, 0xbcdecec83b48a04aU, 0x3bfbf44f3d4fdc3dU, 0xbd10aff33c46360dU,
  0xbd906350bd96ac87U, 0xbc61bd58bd216ae8U, 0xbd9b072e3d5a2860U, 0xbd31fec03da65860U,
  0xbdae4dc43dd74a3cU, 0xbdb1206c3d823370U, 0x3dc3e4623d4cf178U, 0xbcbc08743d9acf52U,
  0x3ce7cc283dc0fff2U, 0xbda8eef7bd6718cdU, 0xbdb512b3bd9eb8d8U, 0x3db544bcbd46bb35U,
  0x3d86cb5c3cbccb20U, 0xbd2c18f2bd54936eU, 0xbdd9de6abd888aa2U, 0xbd8d5a6abc8de4fcU,
  0xbd5f4169bd8de9d8U, 0x3dc0dae0bc876100U, 0x3d6734e4bd826402U, 0x3ca0eea0bcd9db80U,
  0xbd09b08ebda0552dU, 0x3d1d9778bd2dfc0eU, 0xbd9cea07bd0823d8U, 0x3d374894bd1df9b2U,
  0xbcb04e103d3c383cU, 0x3cc1b3d0bd173da6U, 0x3c4f89d8bd63bf41U, 0xbdd7729dbc0344e8U,
  0x3dc6b9c83cd1e4e0U, 0xbd0fb6063cb39400U, 0x39817b00bd342b64U, 0xbd54b739bd3a13c2U,
  0xbdbc1b1abcdd8b3cU, 0xbc00fef8bd916340U, 0xbd4de8a03cecef68U, 0x3d47d7fcbcb7a950U,
  0x3d559de03da8fa18U, 0xbc91af5cbca242f8U, 0x3d590674bd176ac4U, 0xbda92e5a3cb2a270U,
  0x3d7631243cdb4968U, 0xbd15961abbca5c60U, 0x3d7a97c83bb74f30U, 0x3c6fc1d0bcb24664U,
  0xbdcdc188bda4695eU, 0xbd8beae2bd294f4eU, 0xbd8517163c92bda4U, 0xbdb2f0183d8904e0U,
  0x39d92200bd05bb44U, 0xbd93634a3d30cac0U, 0xbd7cdd183d0d3ad0U, 0x3c081bb83d3c2be8U,
  0x3d1125e83d985e60U, 0xbc20bb503caf7fc8U, 0xbd8e22353d50c3c0U, 0x3c812eb0bd27d540U,
  0xbd94d819bdd7e6feU, 0xbd9805683cdb9158U, 0xbd17def03d09cf5cU, 0xbdd08c803dca956cU,
  0x3ce200c03dbeec1eU, 0x3c263a883dcec3acU, 0xbd856a8ebdd68fedU, 0xbc84d7003d8d2a44U,
  0xbdbfbd2d3dcbac0cU, 0x3d5a45743d6a5784U, 0xbcda88d43da63740U, 0xbdbe6d7ebd9e7ed4U,
  0x3d2874c83d3a9200U, 0xbbd3d4e03d02c07cU, 0xbd0f8ff83d1241b8U, 0x3db2b992bd030716U,
  0x3d598ef03c809f34U, 0x3b341400bd5a03a1U, 0x3d1408143ccba290U, 0x3da6fa0abad75f80U,
  0x3d83c4febbd747f0U, 0x3d68a5c0bce82aecU, 0xbd25d362bd9b6408U, 0x3d12cd743d068590U,
  0xbd6686c23a8a8c00U, 0xbd7b6b53bd16443cU, 0xbd920138bd9213b6U, 0x3d7e77383d164724U,
  0xbc743fb83dc63d08U, 0x3daad070bdc41ba4U, 0xbdbaf966bd2aa8eeU, 0x3c0bf228bced0414U,
  0xbd9b74eabae9dc80U, 0xbdb61b34bd92f333U, 0xbca544e4bd74ff0aU, 0x3d86735e3d251d2cU,
  0xbbe708003dc38e12U, 0x3d2dcc603d1db47cU, 0x3d1d7cd0bd89bc52U, 0x3d64b994bd3f1a5fU,
  0x3dbd2658bd6cfe6cU, 0x3c26e570bcfb7454U, 0xbdd87382bda9c749U, 0xbd0209603a934f00U,
  0x3ce69df03d3d9860U, 0xbd513b90bd307fa8U, 0xbcf500903d562a98U, 0xbdbf092b3cd5fe20U,
  0xbc90e0583d25cb8cU, 0x3dcf7f4abd88c9b3U, 0x3db73c32bd209d32U, 0x3dd664d8bd406eccU,
  0x3c2b98303d07e3c0U, 0x3cc16ed03d744b8cU, 0xbd6dc32ebdd7597bU, 0x3d94647a3d962c1eU,
  0x3dc81dcc3d4338c0U, 0x3d9b04583c861698U, 0xbd4d20ab3da80ce2U, 0x3da7d3d6bd456bd1U,
  0xbcad2fc8bd857c4aU, 0xbd1d8a54bdc866baU, 0xbd805f283dd4794cU, 0xbd6dd613bdd3e0f4U,
  0x3cbb0ab03d705d08U, 0x3d5867903d418788U, 0xbc9322483d45996cU, 0xbce329383d389414U,
  0x3cf7e210bda42adfU, 0xbcb35178bd129102U, 0x3da1fdb63d6a6b64U, 0xbd84b1f03ce4ab70U,
  0xbcf03878bdb5ace2U, 0x3c1fbca83dac9a1eU, 0x3d8c9c5c3d012f84U, 0xbc181d883c6380e8U,
  0xbdcf6871bbf87720U, 0xbd8d48ffbb4d5fc0U, 0x3cf88740bdd506d7U, 0x3d913e643dbe29a4U,
  0xbd5fbe7a3d7742e4U, 0x3d2c6cf83cedb208U, 0x3d273aa03d0b93a4U, 0xbd3a443cba68fd00U,
  0xbdb778843c6103d8U, 0xbc43da883d9919c4U, 0x3c4e80303d1a40c4U, 0xbda41c6ebc0c1088U,
  0xbda48238bdd02cc5U, 0x3cc8d2183d8f2272U, 0xbd8f6680bcc8c4e4U, 0x3cdbfd803d83e10eU,
  0x3d4567f43da1133cU, 0x3dd6f652bbd507e0U, 0xbd488c70bd069eceU, 0x3c3725b8bdce82b4U,
  0x3dcd0dfcbcd98c3cU, 0xbda54d333d8a1ecaU, 0x3dc01eb63d0cb7acU, 0xbd03ccfcbd90a03cU,
  0xbda343b63d9d8ff0U, 0xbc082e40bdcc7bbfU, 0xbdbcd044bd916b97U, 0xb8e7f8003dc8760eU,
  0x3c07a4c0bd7437b3U, 0x3dbb6e5a3d2a4948U, 0x3da82f02bc19e248U, 0xbdd4d127bd667b46U,
  0x3cc966103d7ce420U, 0xbd214e0cbc948e0cU, 0xbca6cc0cbdce9f83U, 0x3d95983cbc31ef48U,
  0xbbd9a6803b3d38e0U, 0xbd1aa9363cec97c0U, 0x3ccc6c283cc44b50U, 0xbdd943533d9272d8U,
  0x3d8dc588bdd00440U, 0x3d2b05243d92c782U, 0x3b7623e03c0fb5d0U, 0xbc764db0bdd8f09dU,
  0xbdcd4c7bbd3e03ccU, 0x3ac58600bd8aa304U, 0xbdb5fc9f3cbccb10U, 0x3d48e9943d26c8f0U,
  0xbd3fb15e3d856d5aU, 0xbdbf0f5abc6ef228U, 0xbdad319fbdb80804U, 0x3ca6b6b0bd9dc406U,
  0xbb9791b0bd9f2232U, 0xbd713ad7bca9515cU, 0xbcbc4b4cbc87c8f0U, 0xbbba7c503bc4e260U,
  0xbd9cbc26bc99fd58U, 0x3be5af40bc8d8874U, 0x3dc86888bda3e02fU, 0x39bbf0003cef74f8U,
  0xbc3f59d8bd836dbdU, 0x3dd6f64e3d34c184U, 0xbca5125cbd884217U, 0xbb9185d03a917900U,
  0x3c327310bd4c85c1U, 0x3cfd3f083d84e706U, 0xbc512e103d67abccU, 0xbd342e08bdc79d0aU,
  0x3c5f7badbdba47d7U, 0xbc87e15fbd825343U, 0x3d3e4c71bda87a0aU, 0x3d24ede13c301129U,
  0xbd7e22643c360a83U, 0x3d45093b3d244b26U, 0xbd9bbcc73dcea38dU, 0x3dae7e33bb8e639bU,
  0xbdacf85b3db9bec3U, 0xbc2b34003dc70ed9U, 0xbd6cfeb93d923be6U, 0xbd7d32d03d82ba1aU,
  0x3cd2e2943dbb9946U, 0xbbddbbcdbcd4953eU, 0x3d8f3783bd909a9aU, 0xbd8e677f3dac6819U,
  0x3cf0a4563c1ca361U, 0xbd25d6d2bc2694a9U, 0x3d82a1dfbdbbe922U, 0xbbb5a24fbd551e6aU,
  0xbdb007dd3d24829eU, 0x3d0bf13bbcaec4c9U, 0x3d8d65783dbb76b0U, 0xbc84aba7bdd75070U,
  0xbdb9185cbd6645f1U, 0xbd4f59cf3d9226c3U, 0xbd6d05a5bd83a70dU, 0xbb45b9cc3d50423aU,
  0xbd7ff3d63db1e55cU, 0xbddb07a93c848f4dU, 0x3d592749bda944c3U, 0xbd5cd371bd88ccb3U,
  0xbc9aa2adbbc182f4U, 0xbbffeadf3d92b8a2U, 0xbd58a45ebdd4f193U, 0xbd914c65bc275065U,
  0x3cef4d133cab65c0U, 0x3da4de333d152e6eU, 0xbd22fdc43db7fb18U, 0x3d934ae9bda45745U,
  0xbdc30f923d5f24a8U, 0x3dac3623bdbed1cbU, 0xba58fd6cbd7c4c1dU, 0x3da14b71bcf40109U,
  0xbdaf56c1bcd61650U, 0x3c2cacfdbdcd664dU, 0x3da791a03d89a1c1U, 0x3bec505e3dcc60d5U,
  0xbc0106663d33924bU, 0x3d765ab2bc97ec23U, 0xbdb23a8ebd1973adU, 0xbd7b5d843d83f636U,
  0xbb575f773d2a3435U, 0xbd6aeac2bcf7576bU, 0x3d36d7ef3c8f22e1U, 0x3d3b8aabbd738a13U,
  0x3dc52ad3bca0a874U, 0xbc8ea9d2bd5200d1U, 0xbdc778c8bd737a04U, 0x3d815ba13c06a8abU,
  0xbd4e261cbce260feU, 0x3d8b3cf7bd28f07fU, 0x3daddbe33c8759a5U, 0xbd8ce36fbdc7da7fU,
  0xbce901dbbd81fb05U, 0xbd50820dbcf62a5eU, 0xbc027139bd9a51e4U, 0xbb590d98bd5b955cU,
  0xbd894b04bd049d4eU, 0x3c6692ecbcbc9c99U, 0xbd2d811fbd1a3e77U, 0xbc3e6d663c2954a8U,
  0x3d609f9f3da386e9U, 0xbd892c5a3dd59ba6U, 0xbd877f413d2b9d16U, 0xbdaad08e3dabc95dU,
  0xbdba47babd8bbdf0U, 0xbd3d961dba4da047U, 0xbd9dd136bdb14868U, 0x3dbc24bb3d2b16a7U,
  0x3da31a273d38e83aU, 0xbd3bfb3cbdb0d723U, 0x3d9fcfa63bb598d1U, 0x3d402e0d3da758a6U,
  0xbdaaedfe3dba98edU, 0x3da22c0c3b1ef03fU, 0xbd15e56e3d64c2a2U, 0xbdc316bdbbee41c9U,
  0x3d6101133d905886U, 0xbd81eb5e3d297a7fU, 0x3adfe343bd9c946cU, 0xbc374357bd51b233U,
  0xbd73d5e43cc1f9efU, 0xbcfb40b6bdb5de2dU, 0x3db31326bdb40e01U, 0xbd0cf9593d6c59f5U,
  0xbd492b2cbccfec43U, 0xbdac27e53d54de7eU, 0x3d1b656f3dc58bfeU, 0xbd2ea7b33d417969U,
  0xbc71341dbd92c0d0U, 0x3dce15e73d719b55U, 0xbd87068fbd4869e0U, 0xbd91f3fcbce4666fU,
  0xbd86a5893dd44f19U, 0xbd2b8a7dbd3ded76U, 0xbd49b4013d90638eU, 0x3dd30c3cbd5186c9U,
  0x3d80bbc63c4d7c6bU, 0x3dc604133bfafb6aU, 0xbd9f44c43c042435U, 0xbdd6ff273db0bf8bU,
  0x3dc1251b3d94d3beU, 0xbd267f26bd8c091aU, 0x3cb128b63d80791cU, 0xbd4eaad6bd9a70d4U,
  0xbdd3bc85bcb61e03U, 0xbd801c41bcb8aafeU, 0xbd45c944bdb53216U, 0x3cb04fdabdbfb15aU,
  0x3dd716e0bcf9b80eU, 0xbd23c865bcb875ceU, 0x3d4d5a853bb16309U, 0x3d0682d3bd4d83cdU,
  0x3d5a57c3bd630b71U, 0x3db413693d8ec2fbU, 0x3db58ae8bdbbfdfcU, 0x3969dd183db266e1U,
  0x3dd83b733c198adeU, 0x3dcd23e73c90d54fU, 0x3d94d6d6bd7c9111U, 0x3d07f5cfbd3b292dU,
  0x3d19ef893db2fd42U, 0xbd318d64bda83477U, 0xbca048c73daebfb4U, 0xbd0476533d81e640U,
  0x3c3be43bbd85c1beU, 0xb85049d53c869d34U, 0xbcad9f62bd96e1ffU, 0xbd48749fbbd6ad13U,
  0xbc94946a3c5d791dU, 0x3d43fc2f3cb10686U, 0xbc8cc2323cae072bU, 0xbcced937bdd8738bU,
  0xbd58c98e3d8b72fcU, 0xbdd46d063d0eded9U, 0x3d8fe0213db07d58U, 0xbd754cbbbdd131caU,
  0x3d9a83ef3d8ae9a1U, 0xbd4d96aabd5c12b5U, 0xbc77c3c23dd75ae2U, 0xbbfa7ea6bd9b4c69U,
  0x3d220cd1b8539b35U, 0x3d1d5f013d625d18U, 0xbd954185bb6a2d69U, 0xbd39cffdbd9b333bU,
  0x3d41bbc4bc8561e7U, 0xbd91db5b3d8b3666U, 0xbda80f1b3d099ca9U, 0x3d8ea611bd4e315fU,
  0x3c6c03e0bca6ac6bU, 0xbdafeaa8bd1a7605U, 0xbdbb69d33daad16dU, 0xbd9b0f13bdcaee9cU,
  0x3c70026bbdcd7c7aU, 0x3dc21f0a3d8e3bc3U, 0xbd8fa1cabd1241b6U, 0xbd9747b2bda0d4a8U,
  0xbb2de552bbab6c6dU, 0xbd01cd03bdc7192eU, 0xbd47fbe13d8f5dc9U, 0xbd5b48823d96b5e3U,
  0x3cb7ff313db16a33U, 0xbdb3b3963bf78b81U, 0xbcd1ae75bd0ac801U, 0xbc5d9d73bbb6ef0dU,
  0x3cbd67bd3dd8825eU, 0xbd03fe323d854317U, 0xbc8a0a81bd09181eU, 0x3db28106bd8e3e59U,
  0xbcd341b73c88d076U, 0x3d0b9659bd9b72d6U, 0x3c8b8e8f3b811170U, 0x3ca6c07b3d1cc93bU,
  0x3d88a785b9fff217U, 0xbbb59ca03c4ab1ceU, 0x3c49def7bc8b3a86U, 0x3a6e36d4bd9559a7U,
  0x3db9d752bdc46f1bU, 0x3d0408bbbdc3f09dU, 0x3d2c28ef3d666946U, 0x3d963abd3d9a3e76U,
  0xbdd774a83d7c9d90U, 0x3dd40d2bbdc702e3U, 0xbc79b5793d690816U, 0xbd19a40abdd82021U,
  0x3daea4f43dd41fb1U, 0xbd57068e3d743cafU, 0x3d5c2f583d9aaadfU, 0x3ccc954bbd8e1497U,
  0xbd8f8f6cbc2cd568U, 0x3d1fbd3dbddf548eU, 0xbc29a7533aa6f622U, 0xbd538afc3d8219b0U,
  0x3bf4acc63d2176f8U, 0x3be72b6d3db394b5U, 0x3da6f2cf3d6c52abU, 0xbd4e22373db83676U,
  0x3bd27b6f3d3c03dcU, 0xbcd7b0043cbf54e1U, 0xbd88d224bd9eed89U, 0xbc96e987bce74029U,
  0xbd68b1643dc6fa5bU, 0x3d979f983d44e456U, 0x3bddac07bd7186eeU, 0xbd9bdad9bd4f8280U,
  0xbddc53b9bd7dae35U, 0x3da2c49ebd5d34d5U, 0xbdc7e1643d09aaacU, 0xbdb6ee07bc3c8ff5U,
  0x3ca25971bbccdbf7U, 0xbd7e4c84bdbfc287U, 0xbdc420243d3c7b6dU, 0x3d761b5fbd488aafU,
  0x3d0ab884bde182c0U, 0xbc9157053c37f464U, 0x3c9955a7bd839ed2U, 0xbc2d98a9bccf5311U,
  0x3d9415963dbf33d3U, 0xbd47a565bcdb414fU, 0xba9b4874bba4624bU, 0x3c4ceff9bcd34d30U,
  0x3d12db2fbca8f5b5U, 0x3d5a58bcbd812a93U, 0xbd461a14bd7614d7U, 0x3dac3781bd278dceU,
  0x3c0089273d27cb34U, 0x3daee7ecbdc4d326U, 0x3c44172cbc3cefbaU, 0xbcbf3f063cd23f80U,
  0xbdc41f4e3c9e8127U, 0xbda79f163cd363b1U, 0xbc5ed1813dbc3ed0U, 0x3bc49a4e3da7b65aU,
  0xbcdbd760bdafa849U, 0xbd1fe5653bbc5e80U, 0xbd9f7acf3cc9a92aU, 0xbd051f4cbc9bca4eU,
  0x3cb468983d91c922U, 0x3d68147d3d57efceU, 0xbcc67ca23cc76fbbU, 0xbc107bd53daa795dU,
  0xbdaf012f3cbd0a4dU, 0x3da19bc9bd0434b4U, 0x3da93fe83d92d295U, 0xbd6f8ac23d2f9b45U,
  0x3c6af249bdc24136U, 0xbd68762bbb04cb35U, 0x3d892a6dbcf1579fU, 0xbbb65276bdaf948fU,
  0x3c2c7698bd074320U, 0xbdcbcd4f3d0b89d3U, 0xbd86613cbdb9f46cU, 0x3b108db93d8500a8U,
  0x3b88cf97bcfe607eU, 0x3cbb948f3da95667U, 0x3d014f16bd353b6dU, 0xbd796dab3c800aa5U,
  0x3d7207a93d77a82eU, 0xbda6c1913d541669U, 0xbd413e9dbdc45508U, 0xbdce812e3d4d8d5aU,
  0x3d829e633dab6d73U, 0x3dbb2326bd8e5acfU, 0xbda544133d38e491U, 0x3d80598dbb68aa75U,
  0xbddc9a133dc8bc15U, 0x3d72cbca3d56069fU, 0x3d8549f5bd264b5bU, 0x3c5487713a9dc0a6U,
  0x3d0324003cace543U, 0x3d4e9a443d0b3cf9U, 0xb9b82f13bb14202aU, 0x3dcdb9dd3b144fbbU,
  0xbdd33713bdd8dcb8U, 0xbc7c2fc93d985843U, 0x3ce48e613d92a0daU, 0xbd8012eabd69a8d7U,
  0x3ccff72a3d6865abU, 0xbdcee7103b357abcU, 0xbcec614bbdd97ba5U, 0xbcbbc13e3da79f5bU,
  0x3d6d608e3cff3537U, 0xbdc1bc0bbdd7f8eaU, 0x3cda5f163ccf9369U, 0x3cf12a763b14db79U,
  0xbd238a733d71310dU, 0xbdd704ea3d166d04U, 0x3d667f8b3db0c2dcU, 0x3d98edef3bdcdb02U,
  0xbdcf1359bd315082U, 0x3d8491283c8fa076U, 0x3d34ce14bc870840U, 0xbdd6ac563d70bcf1U,
  0xbc623a0a3b98ecf6U, 0x3dad08f3bc68fb9fU, 0xbd17e1abbc46aa95U, 0xbd7e3325bda0f999U,
  0x3cccb4b23da778b9U, 0xbd1c414ebddd172aU, 0x3cdc091d3c994adbU, 0xbdb65ebc3c6e309bU,
  0x3d9b91443cf41497U, 0xba91cbf43d2cadccU, 0x3dc7981abcdc37f6U, 0x3b2a173bbc5972ccU,
  0xbb187140bdc0f99fU, 0x3dbe550d3d592053U, 0x3d73a8adbdb6f4bfU, 0xbdcc784dbd387962U,
  0x3ceb8301bcf374d9U, 0xbdaa3b5ebddc3b1eU, 0x3d7e732fbde5a9b3U, 0x3b7d0e80bdc84f81U,
  0xbda59b35bd04821cU, 0xbd8b3421bd8f6337U, 0x3d9c28a73d6c7255U, 0xbd7728d5bd79c5b3U,
  0x3d8706d03daf0d38U, 0x3d15ae82bda403a4U, 0xbdd492babd0538c0U, 0xbc2b6dcbbd57d0a2U,
  0x3d567cfcbd61c337U, 0xbdcd0facbd1448e4U, 0x3ba4caf63d9ec22fU, 0x3bd6fb7c3d77cc9fU,
  0x3d4e4da63d6f44adU, 0x3c80451cbc984313U, 0x3d9d327b3ccf8c82U, 0xbcb3f24bbd17ca22U,
  0x3dc96244bdc4b5d0U, 0x3c67fa6abdad9df3U, 0xbc95df40bc43f93fU, 0x3cd02504bd217347U,
  0x3db9bfb8bcfd1722U, 0x3ccfd8e43dc180e8U, 0x3a4b7ba03d2cac29U, 0x3cee1a373dc924a5U,
  0x3d2aaa563dc237e6U, 0x3da11d843c7e51c9U, 0xbd983ae53d826f3aU, 0xbdd5eed03da083e2U,
  0xbb8540bdbd7a7c35U, 0xbdc16d94bd6c6352U, 0xbdbfb1f63d076d6bU, 0xbc0e1c07bdc877faU,
  0x3d3065d1bda5eec5U, 0xbc2ab7033d47be39U, 0x3c6245283d6fc47eU, 0xbd79dc5dbce265d5U,
  0x3da12ae5bd5b8f3dU, 0xbd0874e03d8d6ec7U, 0x3cee51b5bd922159U, 0xbd9166813d0bd99aU,
  0xbdcd3928bdb8b38bU, 0xbd5b8e97bb552594U, 0x3d542de6bc8fa24aU, 0xbd5f9987bdc19451U,
  0xbc95cf4dbd9a6dd1U, 0x3db0b452bd565c36U, 0x3d2bae773d1ddc24U, 0xbd3258353d4e08f6U,
  0x3d80644bbd4e6817U, 0xbd2b6e1fbd5ef932U, 0x3d4b04823ae5b9e3U, 0x3b9d1f723dbd008cU,
  0x3cbda875bdcbe704U, 0x3db411fe3dcc7a8fU, 0xbb7ba3bdbde70865U, 0xbd416dc8bd94e303U,
  0xbddf5bf9bb224ce7U, 0xbdb8d842bd87d5b7U, 0xbdb4e01e3d8a0458U, 0x3d18d2e3bd13719aU,
  0x3dbe49d8bdcda501U, 0x3d49bf94bd362eb3U, 0x397883edbcb0b17eU, 0xbc6caaed3cf7900aU,
  0x3db021a3bcae925cU, 0xbdbe36e3bd5ed325U, 0xbdc4aae3bd8d0c39U, 0xbcc6403c3dc3f889U,
  0xbda6ed2c3d557efdU, 0xbd15f930bd5569c1U, 0x3d45288f3dc034eaU, 0xbc33b01ebd35590fU,
  0xbd8eb798baa5003bU, 0x3c840e93bd7187cdU, 0xbbe332113d989c9aU, 0xbd9cfdf8bd957bedU,
  0x3bc435673d07b638U, 0x3daac0b93d9b41e5U, 0xbd68c6ef3d4f2526U, 0xbd0267f63dc1f4fbU,
  0xbcafd5053db3bde2U, 0xbccf1b3e3dc4783fU, 0x3cbe00de3d6b0ffbU, 0x3dac957bbdc28a70U,
  0xbd0ef6e4bcda5dedU, 0xbda6130ebd27ce4bU, 0x3d5a434d3d52bbf3U, 0x3b6689ec3cbe76e4U,
  0xbbd2dad4bd587150U, 0xbde5bb1abd868816U, 0xbd50dde9bd8c03b4U, 0xbca480ddbdd83c42U,
  0xbd355103bdc1dacdU, 0x3d86e5b83c55d2d5U, 0xbd1c8d41bd071330U, 0xbd01e2193d9caad7U,
  0x3ca8885ebdbe8418U, 0x3db41cb23dc7169bU, 0xbdccc7e13d2a4d1cU, 0xbdc1c6193da3a8f9U,
  0xbda6cc83bd3aad78U, 0x3d8d6a273d043ea8U, 0x3c7154373d8bff55U, 0xbd37701e3d5e7a38U,
  0x3d90a7223c96de30U, 0xbde53fc3bcbdf630U, 0xbd6666033b006e48U, 0xbde5f521bd93aa75U,
  0xbd0d11013d630c47U, 0xbd572a0bbb51fdc3U, 0x3d8b94d2bd6c4361U, 0xbdd72541bdb1b175U,
  0x3db9809a3d3575d1U, 0xbdaa79a93c89ee0bU, 0x3daff871bdab52a6U, 0x3ca4ce07bdd1792eU,
  0xbd8bc1d4bd58af96U, 0xbd729322bd675946U, 0xbdd367823d777618U, 0x3d37d51fbde9ab0dU,
  0xbde82211bbfe2238U, 0xbdbc9f37bd1643d4U, 0xbb4ec7643d912fd9U, 0xbc562b3fbde2b7baU,
  0xbd2908f0bddc1db5U, 0x3d3db6e83ceb9160U, 0x3d65a449bd911553U, 0x3d80466bbda85d00U,
  0x3cff3a103c8b7896U, 0xbd3abcc3bdb261d6U, 0xbcf9c5963d398525U, 0x3d308f70bcd7e795U,
  0x3d562b1b3ce1e955U, 0x3da957f6bd9d4f7eU, 0x3cda29ba3ad29ad6U, 0x3b80acf13d6235d5U,
  0x3d02997f3b0060a0U, 0xbd0ce79dbd77b477U, 0xbda28494bcc1c0e4U, 0x3db39c8d3bf11121U,
  0xbc891a8fbd16bce8U, 0x3d811e253d995933U, 0xbd564a73bda2afafU, 0xbcc2b163bd560c12U,
  0xbdce34b6bc69e471U, 0xbd9cd9693db197e9U, 0x3dc218373dc5ac60U, 0xbdaefe33bdc95dacU,
  0x3db2fe473da8e048U, 0xbd527b673d9fc39aU, 0xbcbbad573d04c139U, 0x3cce4f693ca0c79eU,
  0x3db41d3e3c1837d8U, 0xbd8a3f42bd8c832dU, 0x3d86fe313d654f1aU, 0xba89ec0abd924ed2U,
  0xbdcd8992bdb578d6U, 0x3d38cf953d84d7feU, 0xbdc9d9c5bd8367c5U, 0xbd8953903dbd2b35U,
  0x3d5d58ecbbedec9bU, 0xbd9ac7053d00204eU, 0x3daaed8a3cdbd2fdU, 0x3dc60c89bbc258c6U,
  0x3dc20fc1bdcb618eU, 0x3d0fd424bd9518a5U, 0xbdcc10d33c26542aU, 0x3dbc5d45bdcd0ab5U,
  0xbbcc7941bd759e34U, 0x3d9b4ad3bd2e6767U, 0xbbd7a1543dad7125U, 0x3da4930e3d911a17U,
  0x3db923a9bded654bU, 0x3b9f4d9f3d7e1fecU, 0x3d1a12273d093878U, 0xbd7fca20bdb23809U,
  0x3d82fdf33d9b0844U, 0xbc4d37183d730c4dU, 0xbca9cf12baf92117U, 0xbd8d4ac33d90d101U,
  0x3d94ddf1bdec145bU, 0x3cb46ddbbd33039bU, 0x3caa205ebc251e6eU, 0x3cae7e25bd9fc5a9U,
  0xbd616d353cafa92bU, 0xbc3656f33bc9c9bcU, 0xbd91bf1cbde3cb8eU, 0xbdacbf6fbcf44e83U,
  0xbd1971a2bd46bc12U, 0xbd95ca753d5c69e7U, 0xbc188468bcd0dc30U, 0x3d6525903d073740U,
  0xbd1098bfbda3d338U, 0x3b1da81d3b363059U, 0x3d19a2de3d1f7154U, 0xbd5be501bde1c4c4U,
  0x3d7e6ebbbd0dec26U, 0xbdc52a74bddb6ddcU, 0xbd9a88e33dc02669U, 0xbb16cbecbcbd0843U,
  0x3c49f40fbd54e26bU, 0xbd670764bd039a9aU, 0xbcc02dc83d456fd7U, 0x3ceaaa09bc311763U,
  0x3cda4aaebdb051d7U, 0x3d5ab8063d73ffa3U, 0xbd2228763dcb8c3eU, 0xbbba9212bc95e517U,
  0xbcf1a498bd121572U, 0x3d9393d7bcdd2bfeU, 0x3d31d6ecbd94f8f0U, 0x3c7dd70d3cc47b8bU,
  0x3d5d6930bde8bbaaU, 0x3d6f63bf3b79a479U, 0x3ce88539bd56cb90U, 0xbca2bb95bd50d14bU,
  0x3bab769bbdf1ec2bU, 0x3cb6340b3cad0ea7U, 0xbcfeb39a3d854075U, 0xbde2101abdc90056U,
  0xbdc766433dc9e699U, 0xbd6166e6bd41480aU, 0xbc1e7657bce4876aU, 0x3db4fc283c95c140U,
  0x3d71163cbd0982dfU, 0x3ceb04dbbd0911ceU, 0x3d938c54bd96efddU, 0x3c1aa99fbdd8737eU,
  0xbd759997bd4f3216U, 0x3cb423f93da1f3f5U, 0x3d087da9bd102bedU, 0xbd7a6d603cc6bff6U,
  0x3daa334e3d834f74U, 0x3d7e1d54bcfa9b1cU, 0x3c829b6fbdc90d29U, 0x3c31b5883d0e3fdcU,
  0x3dc0d7f4bccd9f15U, 0x3c32f9acbdaa1493U, 0x3dabb8f43d004f46U, 0xbdd4e4abbd10b8dcU,
  0x3d9ade6cbc3529b9U, 0x3b5fec093ccee6f0U, 0x3c728b19bd70010bU, 0xbcb81f653dabbf66U,
  0xbc6c09183c30b128U, 0xbd95e0d6bd9affaeU, 0x3d9fe1db3d8396c9U, 0x3cf1a4503d0e543fU,
  0xbde19ffdbd9ddaebU, 0x3d8bef8cbda7daefU, 0xbdba49ddbd220f2dU, 0xbdbcad06bcddef5aU,
  0xbc376c22bdcd08c9U, 0xbdaa79e23d2114dbU, 0x3dbd646ebd9bfcb2U, 0x3d36d8bfbd78f933U,
  0xbcac068fbd37fefdU, 0x3d1122d9bcf24aeaU, 0x3c7d8367bb76943eU, 0xbc165ea23d5fe813U,
  0xbd69dc183d9ee62eU, 0xbd93decdbdddae30U, 0x3b2e180ebc5cbd41U, 0xbcb3cbc4bd338da4U,
  0xbd128512bdc1aa8fU, 0xbce85a8f3dbeac86U, 0x3d9f9ed23d58a246U, 0xbddd6e59bd6fb2b4U,
  0x3d4f9a573d8e8613U, 0xbdd0bb903d773386U, 0x3b7f1a9bbdb96236U, 0x3cac38863d6d7634U,
  0xbd566321bd21931bU, 0x3d458b3e3db1e132U, 0xbdb3a2e0bd2e5c77U, 0x3da271a73d9b905cU,
  0xbd205545bc473552U, 0xbd57dc983d82038bU, 0xbd7194afbd8277a5U, 0x3d98133bbbdf1691U,
  0xbbb78c683c832fc5U, 0xbd59451b3dad762cU, 0x3dcb1bd5bd503fcbU, 0x3cc22ffdbca3a815U,
  0x3dd9eb803da7c0dbU, 0x3dd502653da35376U, 0xbc125f973ca60edbU, 0x3d9399323d942c39U,
  0xbd237fd83d92df96U, 0x3c3de4febd3c5f50U, 0x3d3cf9543e02e6e2U, 0x3c5506833c45d16eU,
  0xbd74d8fb3d0b1f78U, 0x3d3e0ea43d652b9fU, 0xbda795433df2a1f0U, 0xbdb301943d8f581bU,
  0xbdcba1a93dbdc863U, 0xbcfd573c3cea0b15U, 0xbd6aef82bdb7ba3dU, 0x3dbe812f3dab6905U,
  0xbce4f7ee3de189d2U, 0xbd7de4b93db30bdaU, 0x3dd3b9303d925516U, 0x3d64b39dbd838e9fU,
  0xbd8432f63de76156U, 0xbc7ba537bdb35d13U, 0x3e1016fa3d899806U, 0xbc8c912d3d57dcefU,
  0x3dd63c7c3cb4a953U, 0x3da0fe0f3ddd11feU, 0xbc3d23b43dc89b34U, 0x3db03ad53dd76b67U,
  0x3c65818b3d150b60U, 0x3ce190a33d93a2baU, 0x3d4364d73cc32d25U, 0x3ba8e50e3de031d0U,
  0x3d9ace5a3dd27091U, 0xbd3498393e086b15U, 0x3d2449c1bd64a9caU, 0x3d79dd07bcf226b7U,
  0x3c62018a3dc1911fU, 0xbb8c45ca3dbc9d5cU, 0xbd441624bc9ad97dU, 0x3c89b0b6bd6a02e0U,
  0x3dd2cbd03df1f581U, 0x3b5f35f63cc522beU, 0x3d945ea9bacad2bbU, 0x3d65d2923d3a04ccU,
  0x3d2f30113d9bca38U, 0x3de3d9d8bdb90c32U, 0xbdb395903df4e9feU, 0xbdd8bc133d5f6744U,
  0x3d6372bc3e02281aU, 0xbdaa4c2c3db3f1ddU, 0x3dedab813d9a2f58U, 0x3d820101bdb64c92U,
  0x3ba60982bca491dbU, 0x3deacaa4bd0a5c8dU, 0xbd9c5fb4bd71dd09U, 0x3d5174b2bd600f6aU,
  0x3de74c223db4da6cU, 0x3d9b4d58bd0e8889U, 0xbd43e4c1bb8654b2U, 0xbca9d8703d979bcaU,
  0xbd056339bc8ae863U, 0xbd63c8603dbefe08U, 0x3d06c6533e0d9a0eU, 0x3db54f2c3d1acb03U,
  0x3e043682bd6a3b23U, 0xbc9227883d9dd7ccU, 0x3ba446a2bd7ed21bU, 0x3d155ab23ca4b6e7U,
  0x3dc6161d3dea36f2U, 0xbc38cb2fbce4bebbU, 0x3d71f2493dac2cbcU, 0x3c316c473dc1011dU,
  0x3dcaeb82bc13b7f7U, 0xbd928929bdbb6581U, 0xbc5fd6c4bdac2a9fU, 0x3d3888503ca546eaU,
  0x3dc42cae3da5d222U, 0x3d5f1d403d23659dU, 0xbd3d20aabc9b0610U, 0x3d15aefebdc995daU,
  0x3d6ad6763c60bd34U, 0x3b6f81f0bca63d09U, 0x3dd12850bccc45b1U, 0xbdb04bb13d83c018U,
  0x3ce5b6de3de22f87U, 0x3beafe063df4f8cfU, 0x3d44c6d4bce899a9U, 0x3d86074abd17ff17U,
  0x3ce9b130bd837793U, 0x3b2e14503d0315bcU, 0xbd077c623dc806cdU, 0xbd7a8d9d3dca9b27U,
  0x3ccae8223db289e5U, 0x3d194eb2bd838d70U, 0x3b8930fcbd08b6bcU, 0xbd7d91fbbd94b9afU,
  0xbc95872abd118348U, 0x3da461f1bd9769ddU, 0x3d974e133c6cb1fcU, 0x3ce82e313da479c0U,
  0xbcbb4ab2bd781aa4U, 0x3cd91d19bdb90159U, 0x3db223033d95cca6U, 0x3c0442f93d9fcefcU,
  0xbd633d113c506f85U, 0xbda55a2c3d3e4ad4U, 0xbd7c18663c963a7cU, 0x3d43fe0d3d9d7e5dU,
  0xbc0e2ced3d0d7789U, 0xbd1356d63df589bbU, 0x3a1392d33df9d933U, 0xbc01ed53bd9679b1U,
  0x3d9d4108bc4053c6U, 0x3db51faa3dc92074U, 0x3d270ba03cf2400eU, 0x3cc8d90c3ca5b208U,
  0xbc3864e5bd04d3c2U, 0xbd481ee3bdc67d1dU, 0x3df9ee1ebdacdddaU, 0x3dc2528abd919b5aU,
  0xbdc482413a7b8c21U, 0x3db04b433dbce67aU, 0xbb8f97983d9d5038U, 0x3d083b513ce1f3c5U,
  0x3df234363d4e7096U, 0x3d20d1373db6ab87U, 0x3c1a42f63dc158d8U, 0xbd8dd5313d85f1beU,
  0x3d1b34773dba45b1U, 0x3dbe7174bd980248U, 0xbd7f57673cb52d41U, 0x3d8ac28f3d9a05cfU,
  0xbcb1b78ebdb6671cU, 0xbd7d0c0d3dde64efU, 0x3da096263d15698eU, 0xbdc24f173c9b624cU,
  0x3d8a5408bd1c3784U, 0x3d46718bbdb67e5fU, 0x3d32fe8fbca7f654U, 0x3c85c9203d780902U,
  0x3d8c30a33d616bfeU, 0xbd5b7cb53cb58909U, 0x3d1a4a7ebd82e317U, 0x3d957bb33e03ab87U,
  0x3ddc054cbce95bb8U, 0x3d2bb56cbc1d0c25U, 0x3ddcac813d35520fU, 0xbc118d463da0220bU,
  0x3d50c18dbd2bf160U, 0x3ce85ce73de6240cU, 0x3dbaf96e3bb0fec4U, 0xbd2f6db53de75a19U,
  0xbc0eacab3d7cfcb3U, 0x3dc02e1d3d8982b6U, 0x3df38fa73dc25ad5U, 0xbd7d9379bc64493cU,
  0x3d922bb83df29930U, 0xbd1370973da39688U, 0x3d25e5153dcea600U, 0xbd72efc63dae2c99U,
  0xbd5b08eb3c1405bbU, 0xbd52dcfbbd801e56U, 0x3da5587cbd8f229eU, 0x3dab96c9bd827450U,
  0x3d5a2316bca80b8bU, 0x3c3411173d3bc665U, 0x3ca1f728bcf6f1aaU, 0x3c9021babdb833d2U,
  0xbce41fbe3d7137eaU, 0x3dc74d053de3689dU, 0x3c2d003c3db195b8U, 0x3d919778bc17b2d3U,
  0xbc9691403df1754fU, 0x3cb3254abd916b20U, 0x3d758cf43da604deU, 0x3deefd183dc15291U,
  0xbdaa5347bd84896eU, 0xbd02c2f63dc57a45U, 0xbcbb4807bcc191dcU, 0xbdbc113f3cff1eb6U,
  0x3d00f2cc3c5369f3U, 0xbd41ebb7bd0ccb04U, 0xbd0622193da5a28bU, 0xbda5eddebbb4f4c9U,
  0xbc85951a3ce66d3fU, 0xbd1f160e3db5fd5cU, 0xbc2e2db43d89b3b4U, 0x3d5415b03deef270U,
  0x3db19b4c3d266917U, 0xbd3c175ebb416d7eU, 0x3d00eab63da99cbdU, 0x3cfaaffb3d96dacbU,
  0xbd2df3ee3da5c875U, 0x3cbff2ed3cc4a904U, 0x3dbd22a3bdab8f0aU, 0xbc226154bddfbd4fU,
  0x3dca8a7f3ac5aa61U, 0xbd985f6fbd085fa3U, 0xbbec147fbdc13ef1U, 0xbc5484e3bd910e01U,
  0xbd9a9c823c127114U, 0x3c7235173caaf281U, 0xbd60c318bd3969f3U, 0x3d00e5d9bdb6589eU,
  0x3d46d7053c4f1f13U, 0xbda6ca6abd7e5925U, 0x3d91f661bd0b1792U, 0xbd029f11bd89630cU,
  0x3b330cea3d36c144U, 0xbd1b8b48bd09c50eU, 0xbd5e3a09bddbbe7cU, 0xbcf04706bdcba7a1U,
  0xbdd3c3443dd36aa2U, 0xbd0df45abd96264dU, 0xbc7e5bd1bdd4ec84U, 0xbdd7e8853d807ee2U,
  0x3d75e8c0bd94a6c6U, 0xbdbe6dcbbd02e028U, 0x3d38c37b3d690c4dU, 0xbc9e4e0a3daf7bc1U,
  0xbdb767223d9bf683U, 0x3d66d3ccbdb3c9a2U, 0x3cb4460f3dac0b59U, 0xbd13e9b93dae1d0aU,
  0x3c989438bc0f71d2U, 0xbcd743b53d10cacfU, 0xbd55976dba45fe65U, 0x3cb82f193dab66d5U,
  0xbd050038bd8402a1U, 0x3d613d713c8fe1eaU, 0xba376c8f3d609777U, 0xbcad5992ba6e6a92U,
  0x3d9182d7bdc07725U, 0x3da763edbdc949c6U, 0xbdbecad5bd47ba01U, 0x3c4909d5bd949557U,
  0x3dbd7e0cbd6569c0U, 0x3da92ee73cc081fbU, 0xbd80f2ab3d96c8d5U, 0x3d6b1dcb3cbc0866U,
  0xbd8e08efbdc323c7U, 0xbd53f75b3dc0c8cdU, 0x3dcda29d3d85b748U, 0xbdcbdf8e3dac00b9U,
  0xbdb5a12b3cf51efaU, 0xbd0748a6bd016152U, 0x3da313b3bc82a9f8U, 0xbd7dd79ebd43418aU,
  0x3d0cc1903dd5a26fU, 0xbda835f73bb7fa98U, 0xbd38953cbd218a6cU, 0x3d1b7c9e3bdc33dfU,
  0x3d4487193d37ffb8U, 0x3d8d7821bb77e3abU, 0xbdb0d6be3d4e105fU, 0xbd9dabeabd78a75fU,
  0x3c8f21db3da9e4f6U, 0xbd927de2393aaf07U, 0xbd6ce555bdd7fa0aU, 0x3dc16e2f3c0722d6U,
  0x3d548f823d38e9ebU, 0x3cc28f7b3d79beadU, 0x3dc4a585bdc7ec2dU, 0xbddb5bf9bc87d24eU,
  0x3d3a3279bdbcad89U, 0xbd2c5c453bf1ff6bU, 0x3b20eaf6bd3abe82U, 0x3da154e93ccc03b3U,
  0x3d08166f3d94f6d1U, 0xbd675be53dbde922U, 0x3d32fb993d76240dU, 0xbb7dd70c3d813c9fU,
  0x3d8dfee3bdd1a05dU, 0xbacf37483d4c96ceU, 0x3cc6b3ac3dbfe88eU, 0x3ce479733befcd7fU,
  0x3dbf31893d79fbb7U, 0x3dc00a4abcd9a5d2U, 0xbc8dcb31bdd10e3cU, 0xbdaed4213c6ea6baU,
  0xbd2bd4fd3d69e92bU, 0x3d40044b3d48b018U, 0xbda5fb16bcc3daacU, 0x3d7d5c523d6e717cU,
  0x3d52cb06bc0f35c8U, 0xbd24f2573d3fc0a3U, 0x3d0b96363d87efafU, 0x3dc423afbd195d1aU,
  0x3dbd3a013db6663cU, 0x3da585c0bdaf589dU, 0xbd46f1e93a208d89U, 0x3dc7a72f3d36df71U,
  0xbc797948bdb622e6U, 0x3c73f1b9bdafa669U, 0xbd8c2ff43ae5bfa8U, 0x3da7ba6cbd86662dU,
  0x3d4618513d4761cbU, 0x3bc5a8bdbdd04abaU, 0xbd809cf8bca03afeU, 0x3cf62785bc41d1d4U,
  0xbcbc2f60bdcc0840U, 0x3d64810c3d18fdefU, 0x3cf31369bb3ff3d1U, 0xbdceff9e3d047ec1U,
  0xbccf8c83bdb0c924U, 0xbcfb37adbd7ff84cU, 0x3d80a0573da90e64U, 0xbd29cb77bd154902U,
  0xbd360e58bbbf4a7bU, 0xbc6bbd6bbb360560U, 0xb94db0d73d3b615dU, 0x3d7704693d00b1d6U,
  0x3d17b6513d8b23bcU, 0x3d3d45b7bddef266U, 0x3d690299bc79bb42U, 0xbdb3f6393d88cbe4U,
  0xbda031fc3d470c8dU, 0xbc7c6fd13c898da7U, 0x3db26efa3d79a946U, 0xbab16a64bd1bafd9U,
  0xbdb256ba3cee20f9U, 0xbddf1971bd1077f1U, 0x3d84a8b9bda4781dU, 0xbd979e58bd531a7eU,
  0x3b618d50bd8cfec4U, 0xbcf102e6bda4c8e6U, 0xbdd95ec93d777224U, 0xbcab18a5bb968221U,
  0x3dd2ab9cbdab6f62U, 0xbda2baecbd92f5c8U, 0x3cf8e084bb893545U, 0x3da175db3d6ac86bU,
  0xbd6b1387bb01c877U, 0xbd4c728d3cb6608aU, 0xbdbea207bc7d70afU, 0x3c0d59013d1b119bU,
  0x3dd2425abdd87689U, 0xbdbce998bbb1abcaU, 0x3db70ce9bd982201U, 0x3dc915773933a518U,
  0xbdcf9fcabdb6be30U, 0xbd4a3c6c3af277c3U, 0x3da97eaebd64a128U, 0xbca5ade9bdaf9e7aU,
  0x3d9102253dce44fdU, 0x3c8e5436bcf70114U, 0xbd4076343d924535U, 0x3d5c5bb9bd7ecd41U,
  0xbd0e2f4b3dd37985U, 0x3cf6c1643d71f4d6U, 0x3dcd6cf4bcfed510U, 0xbdd9b5f4bcaa45acU,
  0x3dcef6833d9b893bU, 0xbdbab290bdd801d5U, 0xbd75473d3cdde615U, 0x3cbf5a4b3c84b0cdU,
  0xbddeeba0bd845f0bU, 0xbbad751d3c895a3dU, 0x3c59c2523c7df1cdU, 0x3db95ba5bd9eec6cU,
  0xbdcc6acebb8024fbU, 0x3db097233d57116fU, 0xbd6ace0fbddf88e0U, 0xbdd16acfbd82448fU,
  0x3d932cc0bd3a16c8U, 0x3d51c0b1bc98feacU, 0x3d8d6b30bd9740ffU, 0x3d5276a53da3f312U,
  0xbdc83785bcb5d037U, 0x3d8d7e6c3d8ef712U, 0x3cb44f1c3c8554d5U, 0x3c9f52e3bdd4d737U,
  0xbd1f12843da41711U, 0x3c6740313d7406a8U, 0x3dc525b23dbfddfaU, 0xbd197fcfbd7ddba0U,
  0x3b8e90173d947abcU, 0xbdd39fa43dd2bdc3U, 0xbdbbda7fbc0aa5dfU, 0x3db085e2bc6477f6U,
  0x3c98fe98bd36721eU, 0x3ca988cdbd3250cfU, 0x3c71f40fbcbc43bbU, 0xbd05c7923d01bac5U,
  0x3d14f7533c342a29U, 0x3db284f8bd6353eaU, 0xbce9d21fbc32c91fU, 0xbbcc6636bb5bc178U,
  0xbdc2f6ff3dad41a7U, 0x3d955f08bd9ffa0eU, 0xbd4a7467bcca8452U, 0xbd97b9ddbdabb9baU,
  0x3d8459fa3d4cd09fU, 0xbd8bdad13d3483d6U, 0xbdb252033afa88cfU, 0xbca343083db6295cU,
  0x3d0b418e3c24eb50U, 0x3c9e62afbdb05bc3U, 0xbd4d4f04bdbcd20eU, 0xbdf450823dbeaeafU,
  0xbcb9a64f3d45a78cU, 0xbd96645c3cce36f9U, 0x3d75c2bfbcdbf0d6U, 0x3d0b899abd5918aeU,
  0xbc99284fbd9c2aaeU, 0xbdd966333d4d3917U, 0xbcc3eb763c251eb9U, 0x3d0fac8b3d92e2e3U,
  0xbd9a7f58bd58763aU, 0xbd30ec22bced117eU, 0x3db8ec313d7b17edU, 0x3b3b39843db03774U,
  0x3d0bd7323d9a50adU, 0xbcc2824b3dd42321U, 0x3db60c04bd56f3edU, 0x3cc93bc7bde93003U,
  0xbd8c53fb3b19bff0U, 0x3d6216ce3db52dc9U, 0xbce47399bd19e3fdU, 0x3dc35ed3bcb7588dU,
  0x3d82563d3d7c937aU, 0x3ca74926bd5b5a36U, 0x3d5742853dc3b4b4U, 0xbdcdb568bd8d8926U,
  0xbdca9fcc3dbca9a5U, 0xbd165e133dcce012U, 0xbd9840b93d70d6deU, 0x3aeddbd6bd5aad5cU,
  0xbbe74ff43d13dcdeU, 0x3bb0ee2b3ba9beceU, 0x3d9b64edbd39f09dU, 0x3c03ff88bd2da86cU,
  0x3d181d1ebbc8793bU, 0xbda1c3dfbd849fdeU, 0xbd8f8de03d0b7a6bU, 0xbd43cdf03db7df3dU,
  0x3c129626bd946e16U, 0x3d9b447fbd2717d6U, 0xbd238561bcf1c58eU, 0xbd32f6773dcb193bU,
  0x3cb950c63d58cbd7U, 0x3d882b423dc2c966U, 0xbd4b0a2a3c451951U, 0xbc95f105bdc26a88U,
  0xbda953673d4d9979U, 0x3d80a903bda9440dU, 0xbc480ace3dc7d917U, 0xbc0c252e3cfc9fe5U,
  0x3cd2c1923b8ad04aU, 0xba1fce283ce11946U, 0x3dd190aa3d9ff23eU, 0xbda82529bdd1b71fU,
  0x3d0a5949bd2b7e87U, 0xbd03a49c3cf76ebdU, 0x3d87988dbc5d30c6U, 0xbd547907bd71860cU,
  0x3d3a9d3bbdc72c0fU, 0x3c26403e3cf35279U, 0xbd4687f43db0a1e1U, 0x3ce6b7febcc50682U,
  0xbc6b972f3dd8ad39U, 0xbdb58f103bc9bb08U, 0x3dc3495d3dbf7cabU, 0xbd4953c83cc96d6fU,
  0xbd9cfb4bbc661235U, 0xbd8b43b1bdc5b10fU, 0x3d3af207bcd92c5fU, 0x3d8f12ac3c467777U,
  0xbddac2bb3dcdb591U, 0xbdc1aa883d0c0566U, 0xbc346d6cbdba732dU, 0x3d9312d93c68bbc8U,
  0x3bc7bf603db46895U, 0x3d8189a93dec008aU, 0xbd7c7a783d31c991U, 0xbcb31471bd945c30U,
  0xbc35562a3cfd5594U, 0x3b6f74dc3d036a0bU, 0x3bd18826bd62c46dU, 0x3daf9910bc977036U,
  0x3d88cbd83d523155U, 0xbd9caabebc02b69cU, 0xbda24efdbd65d12fU, 0xbd9c41c7bccb263dU,
  0xbda2c09b3d02f27fU, 0xbb8b2f373b0d887cU, 0xbd2ddd9bbd856c6aU, 0x3befff423ddf2663U,
  0xbe00f2cb3daf5f8cU, 0xbd1ae54c3d2b0e7aU, 0xbd792094bddae3b2U, 0x3db3bc45bd40c12aU,
  0x3d0661aebd94ed6bU, 0x3c90303abc689920U, 0x3c727914bd7ee1f0U, 0xbcea587ebc1b8863U,
  0x3db76521bcf48232U, 0xbd7240363d833dc6U, 0x3db9dd49bdd8d20aU, 0x3cb33e023d8b3bcdU,
  0xbdce61943dcd5e9cU, 0x3bd766c4bd93bebbU, 0x3dadcc5a3d7b1fb0U, 0xbd57e0c03d4337b2U,
  0x3ccaacc6bd5f90e7U, 0x3dc3b0d7bd84cc5eU, 0xbd84eb68bda7bd39U, 0xbd7814f63da00df3U,
  0xbd54af853c984bc0U, 0x3d85967bbd41f138U, 0xbc99f219bd76a724U, 0x3d7c8a6f3d9e3db4U,
  0x3dd4cfb9bdeb732aU, 0x3d79f2c5bc4c21ffU, 0x3dc7f6d43d9bbeedU, 0x3d18c0f93d841ad5U,
  0xbd30767cbcf9bf98U, 0xbd695544bd697f73U, 0x3dda54cc3dac08d2U, 0x3d7fd6f9bd8cc72cU,
  0x3ceaeade3d92fb4bU, 0x3d0790f73c80ef04U, 0x3d1b9fc5bdb4ba50U, 0x3c793f4a3d8880f4U,
  0x3d0a9a66bdb816aaU, 0xbccb1461bc606812U, 0x3dd09a55bd8f6e4eU, 0xbd1676393cbb8ec7U,
  0xbce3bc4abc0c3bafU, 0x3d6878c5bd696925U, 0xbddb3d993de07337U, 0x3dbdfe3c3db6c590U,
  0x3c3cce15bca3da9fU, 0x3d642752bd350c46U, 0xbcab9284bd3e5c04U, 0xbd83f629bd59197bU,
  0xbd8ca113bd5bc359U, 0xbd4d566e3d3a98f8U, 0x3da2a834bd29e692U, 0xbd3b929bbd04a406U,
  0xbd28aa19bce34b62U, 0x3dc736f5bccb11aeU, 0x3da8c622bd3f9601U, 0xbdefb0113d9108c1U,
  0xbd23cde33dda501eU, 0x3d1cc0cb3d74690dU, 0x3db66c463dd3190aU, 0x3d5a8d843db63cf7U,
  0xbda6fa8fbcf00b9bU, 0xbd8651a1bdd5f036U, 0x3cdc6fcfbd34f993U, 0xbcc6eb053d08b855U,
  0x3c8204c4bb9260f3U, 0x3ddeafab3c593d2eU, 0xbda0d4b6bdc86c4eU, 0xbcae57e9bb723d34U,
  0xbdb5487f3da10149U, 0x3cb2f697b9f9385aU, 0xbc6a05363d8098caU, 0xbd5cd7493d895cc3U,
  0x3dbe7671bc43280fU, 0x3c9b5a553c74566bU, 0xbc5449d4bc6e169dU, 0xbdd61db43cfbb316U,
  0x3d6e60c2bdbd3982U, 0x3d77a2b7bd060da4U, 0x3db850133ad5bcb8U, 0x3d813312bd6cd671U,
  0x3d8e2a50bd88b398U, 0x3d27ca9ebb0fa434U, 0xbd90384e3cf5db99U, 0xbcb1eff43d7608edU,
  0xbd9d1d09bb64b632U, 0x3cf4b5be3d721049U, 0xbdd5751bbde8a75aU, 0x3dd51bfdbd70c46aU,
  0xbdc0b525bda59b0aU, 0x3d9a6c90bd05b269U, 0xbc6c7b743d982d1fU, 0x3d57ec843dc9ae6fU,
  0x3d3a2d1cbdcf269cU, 0xbdbff7d23d509107U, 0x3d3b35763cf04c8bU, 0xbdc3dfcabd109108U,
  0x3d84753d3caf94f3U, 0x3d6041313d865e76U, 0xbd4edcfb3dc441f5U, 0x3e00713bbd907debU,
  0xbd481de3bddd5f32U, 0x3dd2fdbebc503e74U, 0xbacf70fabb017545U, 0xbd914fba3d92e8daU,
  0x3dc40b1ebccbe5b1U, 0x3dd415093db2e35bU, 0xbd9fb2febd61406dU, 0x3dbac703bdb9fd5bU,
  0x3dadd074bdb5b92bU, 0xbde030ac3d3cd9f3U, 0x3d7cb5283d9d1614U, 0xbd892ff23a297fd9U,
  0xbc89733bbdb8d53bU, 0x3dc432d7bdb8ed6dU, 0x3cfe63543cfb2b4bU, 0x3d6e1119bd8f8300U,
  0x3cc46ec93c02726aU, 0x3ddfa21abd23d891U, 0xbd8947463ce212a7U, 0xbdb89f763cb31e38U,
  0xbd0f87383d905568U, 0xbb1c22653daf3ab1U, 0x3d98825b3bb60828U, 0xbd8ca56dbc7cf53dU,
  0xbdb1bc6cbd5de6e8U, 0x3d24ba683d04a8b4U, 0xbcd454573d68ba7eU, 0x3d2600df3d9974caU,
  0x3bc17e54bdcec8bcU, 0xbd46a2cf3da0bb79U, 0xbdcc9c3b3d79fa4aU, 0xbd5830cabd3258f2U,
  0x3d0799293dbef46aU, 0x3d7054fd3d2efb71U, 0x3dace9bf3d5d0021U, 0xbd0877d3bd605694U,
  0x3de011423d1b2c18U, 0xbcba78873d1829dbU, 0xbd216b74bc4d9287U, 0x3d1785783e071699U,
  0xbcfb9bb63daa4c83U, 0x3d6ef3a33cb981b8U, 0xbd9734d03cb01750U, 0xbc31032c3daeab36U,
  0xbdb57b683c0d06a8U, 0xbd8b8b993cfe760eU, 0x3d9f84523e00c163U, 0xbd922e203c781175U,
  0x3d6d57cb3d414f58U, 0xbd88a2ed3c575157U, 0x3bfb399a3dc53dc5U, 0x3d811700bc70ca0bU,
  0x3cf02406bd60791bU, 0xbda0e211baaffde5U, 0xbdae6ad23c2ddc56U, 0xbc5d9bbc3d7df2fbU,
  0x3c4c363a3dd1c3e4U, 0x3d756a563dae0649U, 0xbdc4bcd23b89cf32U, 0xbc51e3573d82c83cU,
  0xbce984b03c516a5dU, 0x3dc89650bd5a2a5bU, 0xbc7ad3a53ad7e133U, 0xbd1c9d773da96fbbU,
  0x3c8d7855bda46da5U, 0x3d1a9d7dbc86ecb0U, 0xbdd50d68bb44e1a3U, 0x3d2cf85f3d703da4U,
  0x3d584f1a3ddb19caU, 0x3bb03b8d3d3d6dbfU, 0xbd1324fc3d706488U, 0xbcdf3d4fbd5b57e7U,
  0xbdaccf3fbda29a29U, 0xbccd7cfd3c6b83dcU, 0xbceb11643df84024U, 0x3d076639bcd73d28U,
  0x3ddce098b946e7ddU, 0xbd77239c3d436e58U, 0x3c5d4cb33d144b37U, 0x3deac29f3b791dd6U,
  0x3ca915943b0f47f2U, 0x3d95d8e6bc137aedU, 0x3d4ba5393cc2afbcU, 0x3c7c9daabd847d3dU,
  0x3dbc76e93ddfcf3aU, 0xbd2db4cdbcd99d94U, 0x3d5b547ebcf2d113U, 0x3d55ecf2bcb0fb2dU,
  0xbb10b2013da64822U, 0x3c9178c13cd8979bU, 0xbcb53f343dc8b0aeU, 0x3da41f793daf5713U,
  0x3d241db53daf1c5cU, 0x3da76e80bddbc976U, 0x3e06dce7bdcd471eU, 0x3d9260303dea48adU,
  0xb9fb670e3d0f9234U, 0xbdce8a173df4477eU, 0xbd988f533d9c840dU, 0x3db4ce25bc94536bU,
  0x3d70b60abd7e1295U, 0x3daff5cdbdff72efU, 0xbce7f84ebd967800U, 0x3c172a153dbdb844U,
  0xbdc162873d6587ecU, 0x3d8f86073d5ac032U, 0x3d962ddd3db8ede4U, 0x3d8de7e43ca5ade0U,
  0x3d70b04c3d149017U, 0xbcaf5bcdbd961a1fU, 0xbe0a2d92bc88f919U, 0xbd2eafde3de4142fU,
  0xbd5628b5bc7d3a79U, 0x3ccec7d8bd6ef8daU, 0x3dd211603d971f04U, 0x3c864118bdde639cU,
  0xbd61a8b0bd1158a6U, 0x3c2ad8503d8fb100U, 0x3d1f62443de1da8aU, 0x3d90cd5d3c93af99U,
  0xbd3847dcbd78656bU, 0x3dccdbdf3cfab974U, 0x3dfdc37fbc713cbeU, 0x3d585cbcbd1b7a7dU,
  0x3d859af83de05986U, 0xbd8e2d383e07470dU, 0xbdd8bce23d9a2a5eU, 0x3d90bf8a3dbd33eeU,
  0xbcf9264bbdef574dU, 0xbc0de7593d2d9a4eU, 0x3b1fa8d4bd97e7e0U, 0xbd45dd6f3de4b196U,
  0xbcfd17483cf1ea6fU, 0xbd9113d83d52e380U, 0x3e143e05bce749ffU, 0x3e029644bd601c22U,
  0xbcc0e658bdf133a4U, 0xbca15cdfbce7dd82U, 0xbda22f913d96bf0aU, 0x3d1ea1c93d063988U,
  0x3d9057b13da2bcd2U, 0x3dda6cb2bd95b702U, 0x3d79e15cbd83d02eU, 0x3db28ad6bd82fcfdU,
  0x3dcacd0d3d702533U, 0xbc533d93bd102542U, 0x3d7291353e1005e8U, 0x3db6f5963d473416U,
  0xbd3b5174bd754b99U, 0x3d7528f8bdac4410U, 0x3e06b0fabdac6138U, 0xbc0aedc4bd851bb8U,
  0xbdbecbe13e015412U, 0xbdc7705b3d7e9d81U, 0xbdd17348bd37de63U, 0x3d1f7d313d8ea17bU,
  0x3d423fac3d366b35U, 0x3df263c73c28bdabU, 0x3d933a3cbd1496d4U, 0x3d5763203d85cdb1U,
  0x3d4fd0c63bdb3cd3U, 0xbd4db51d3d4b3ab1U, 0x3cdb2f8fbdabe9a4U, 0xbcee871ebda09fa0U,
  0xba94b27dbd8cd879U, 0x3c53286dbb0fc24bU, 0xbd4cb1b6bd6a9c82U, 0xbda4bcac3d8e96daU,
  0x3d7c3c563db13266U, 0xba974d163c25246fU, 0x3e00805abd8a3fe3U, 0xbbae8ace3d550923U,
  0xbbe1e0c13d8f3977U, 0xbd85d729bd62e2a5U, 0xbdcd1b433dd555eaU, 0x3ddc62e23cefaa08U,
  0x3caecb883c384660U, 0x3cc009e23cd15575U, 0xbd5b52b43caee21fU, 0xbdc240793dc5ef9fU,
  0xbce93491bcef0ee0U, 0xbd007a453e039902U, 0xbbd4604e3d41bba4U, 0xbd05ab403dbb873aU,
  0x3cd70935bd3f4778U, 0x3c6045adbd96fc82U, 0x3cccc13d3de8fb5dU, 0x3a8aa9eabd243429U,
  0x3d08db89bc48a604U, 0x3ccfd31d3d2dd255U, 0x3dbf4222bd977cf6U, 0xbdb556ca3d6c9db7U,
  0x3c0d17b73de1ac0eU, 0x3dad08fd3d4a569aU, 0x3da2bd983d94669eU, 0x3d922559bdb17783U,
  0xba2228063c9426a5U, 0xba9d1490bda1c6d7U, 0x3db0517b3de1057eU, 0x3d35e7d0bb881157U,
  0x3d88c5423d66e9dfU, 0xbd86876d3dea168cU, 0x3db40005bbeefbe0U, 0x3ddbd0503c9adcb2U,
  0xbdd85334bdb3d029U, 0x3d2ffe1cbd9edcc8U, 0x3d852227bdec7f52U, 0xbca59a343a7ad553U,
  0x3d30510e3c2b58fcU, 0xbdd35f3e3da98e9dU, 0x3d5ecb51bd5cefc5U, 0x3d9a56833df3e789U,
  0xbc5dfa1abde577ccU, 0x3acda9243cd4145cU, 0x3c90d6afbd67b7a6U, 0xbdce9ef33d35e26eU,
  0x3da0a207bd58bbe2U, 0x3d9eec3a3e0c08a9U, 0xbd9999903da2ebcaU, 0x3de1cbc33d2f6723U,
  0x3cd205893b1da4c4U, 0xbdba7064bb4553a3U, 0x3dca26563db47ba6U, 0xbda2e6503de00e0eU,
  0xbc0e9dc03de32a36U, 0x3d844fdc3d281f13U, 0x3d18fd4a3d6767f4U, 0x3d7abb28bde7a7c3U,
  0x3de5ce103daa370eU, 0xbd79d0fe3dbb084cU, 0x3d2eccd63dc4c30bU, 0xbdd2db10bd43c0e3U,
  0x3d8efa243d72a8acU, 0x3d62d8f63d9518deU, 0x3dfa19c43d8c492dU, 0xbd1d0c1d3c3d99beU,
  0xbd76dc273b4b8bc7U, 0x3d62df05bd7bac99U, 0x3d886ca83e02d8a1U, 0xbd826b8c3df129ecU,
  0x3d1f31cd3d55ac64U, 0x3d9d00563b5c92c7U, 0xbd9713eabdba3230U, 0xbd9647473d2165c3U,
  0xbdaa0cdf3d067b04U, 0xbb9c99003b2b3395U, 0x3d22d0d9bdbc3a7eU, 0xbd0d0d923d2f9f38U,
  0x3c6371b7bcf4b466U, 0x3db1c49d3cc3b1feU, 0xbdd14394bd1952c1U, 0x3d07273dbcea4615U,
  0xbdc6c4f3bc1b687aU, 0xbcedb095bc6b35bfU, 0x3d2b8e13bc0cab21U, 0x3cfb6a373d6497faU,
  0x3d0b75a53c51e549U, 0x3d32f6923c6cd4f6U, 0x3d8f180abc4268c2U, 0xbcbb8e3a3d5824caU,
  0x3bf931323debaf07U, 0x3db4d9063d9a7f28U, 0x3d999eb9bc0f60acU, 0x3d089920bd8e4227U,
  0xbd1af618bd114d1bU, 0xbd6f33a2bdc3c9b2U, 0xb9d43bb6bd06d9b7U, 0xbd7711403d56bd73U,
  0xbd84c4043cf27a8fU, 0x3d14da66bdda5028U, 0x3d57d73fbd14cbcbU, 0xbcfcc6a5bce19bbeU,
  0x3d93aafeb8573134U, 0xbe0010063dab4fc8U, 0x3d9787623e03d359U, 0xbd9723783da3d174U,
  0x3d06d688bd60690fU, 0xbd910e433d73c823U, 0xbb9e69f53c050cc7U, 0xbc73767c3d313f41U,
  0xbd54c5dbbcb7cb79U, 0x3da499d4bbc608c3U, 0x3ca0eaf0bd1aaf73U, 0x3de07eccbc61cd95U,
  0x3be36601bc29a626U, 0xbd6ff8373d2dd3a9U, 0x3d6a6da6bdd13e55U, 0xbda703a9bdd1195dU,
  0x3d0b7ec23c805fbaU, 0xbdafcfd33dc69e9bU, 0xbd1d1a40bdae14c8U, 0x3c45ae573cf144aaU,
  0xbd8057c13d06c27fU, 0x3d8e9f3dbda81c6dU, 0xbdd01376bd571eecU, 0xbcddf02e3d0a5ab6U,
  0xbd4bb1de3dbc573eU, 0xbdc16e37bd9e66c7U, 0x3ddd95cd3caa49b1U, 0xbd18a79ebd91b63aU,
  0x3cb71dfb3d595a89U, 0x3bff64e03d66b02bU, 0x3d3d88263d81de53U, 0x3db1187d3dac18a1U,
  0xbd31fc04bd235bd9U, 0x3d9c96783dcd1cf0U, 0x3d796c43bd85b99cU, 0x3d77a027bd2a5583U,
  0x3de839233dc57724U, 0xbddf26273cf4ee2aU, 0xbc63f846bdbd45caU, 0x3d35efbebd455e11U,
  0x3dafd988bd591cb9U, 0x3d82e4b5bc88bcd5U, 0xbd1dbee9bd92418eU, 0xbd364ccdbd19b820U,
  0xbda7ebdd3d96e8b5U, 0xbd814207bc90191cU, 0xbd53622d3db5073eU, 0xbdbdbb9c3dabde1cU,
  0xbd8b9b333d81b189U, 0xbcbeb4993d83e4a0U, 0xbd7dd91dbd729efcU, 0xbbabf73fbdd11d55U,
  0x3ca926e7bd1410b8U, 0xbdbf3a943d6b30f7U, 0x3cb72d2abd09c982U, 0xbd874a63bd878c2bU,
  0x3dd2cfefbb139488U, 0x3cf270d03be401beU, 0x3c77c953ba99e0a6U, 0xbd13ec94bd0f9b7eU,
  0x3d2c44fbbd9d288aU, 0x3d5d2ebb3d660529U, 0xbd93b06abc44b28fU, 0x3db2e594bd285d37U,
  0x3d19ad09bdf2baf2U, 0xbdbd42c4bdd69bd5U, 0x3c61f33ebd0220ffU, 0xbd8d32b23daa29dfU,
  0x3d6bfcdbbd073950U, 0x3da9c150bd4c94adU, 0x3c677725bd0a4b2eU, 0x3cbd418dbdbcbe0dU,
  0x3d4824d9bdd79dc7U, 0x3d453ef9bdacbea5U, 0xbca503b13dae6418U, 0x3cf4a9333d66a1c0U,
  0xbd7f15dc3d5e00e2U, 0xbcf5fdaa3d32e068U, 0x3da71ba1bc1bc81bU, 0xbc0f64743d26159fU,
  0x3db3454cbc99fed0U, 0xbda02c86baabf80bU, 0x3d3abdbebd07c9a5U, 0x3db6657abdad89b1U,
  0x3d9e4d5d3d8fe02cU, 0x3cd08ec7bd84e15dU, 0x3dc8d29b3d5c4048U, 0xbadc054ebd54793fU,
  0x3d7bd4213d670506U, 0xbce2f8d4bd01d5ebU, 0xbb8e631e3d9d6cadU, 0xbd82b7f9bd6b6b2aU,
  0xbd48af153ba846f0U, 0x3c2ec4f5bd901daeU, 0xbda7cf4abde3b301U, 0xba241aa43d2899d1U,
  0xbd3ca2443bac40f4U, 0xbdb6f5d6bd6eadf1U, 0xbd01c8c53d0f4f3eU, 0xbd331d653abe709fU,
  0x3db531a13d2d0d2cU, 0x3c54d3a8bd900a2dU, 0xbd69b5143c86871dU, 0x3c4bca6a3d8ee456U,
  0xbd1bf4bebc84d21bU, 0x3bdb25773deb3cbeU, 0x3d500aae3d861243U, 0xbc25a379bd8c880fU,
  0x3dae32603c926574U, 0xbcd5f250bdb5a5c4U, 0x3d94a2a63dd66184U, 0xbbbbac9ebda1620cU,
  0xbaf163e03d6f3840U, 0x3cfae5e13d9ecef5U, 0x3da690893d6343c7U, 0xbd9ffd333da1dda5U,
  0xbcf0f8e63d7b0581U, 0x3d364d533c381e14U, 0x3da9330f3db09956U, 0x3b9b936f3bc4fe14U,
  0x3d9a5a71bb28fccfU, 0xbd3542a83d0dca03U, 0x3d978d53bdea5c99U, 0xbdaeb31d3d881fc2U,
  0x3d4e3c0dbd916d15U, 0x3d11789f3da59d36U, 0x3cea46bfbcc96906U, 0xbce1d7943da8ec6eU,
  0x3ba09a193d82169aU, 0x3db1ce5cbd0baf5cU, 0xbd91d4dabd1b5e75U, 0xbb3255c43cec2755U,
  0xbd8e4e02bd2e44a0U, 0xbd87c798bbdf8710U, 0xbd7bd675bc1ede48U, 0x3d1746a03d70b3d4U,
  0x3c5ef228bd7ffe54U, 0x3cc78ff83d1ba8a0U, 0x3da329fe3c988568U, 0xbcec5b703cd6eb98U,
  0x3d7a3058bd781d36U, 0xbcdbd2483d527b40U, 0x3bac70b03d71c348U, 0x3daf0358bc062940U,
  0xbcc674b8bce04e6cU, 0xbd8924b8bdbe9278U, 0x3cd7ced0bdb89cbcU, 0xbcc5afb8bd51f1b7U,
  0x3d429f483cf27460U, 0xbda482a83cf63eb8U, 0xbd8a30e73d9a5360U, 0xbc7f6700bd5288b0U,
  0x3d7d429c3d7101a0U, 0xbd8d7e9ebba34820U, 0x3dba7bb43da8d132U, 0xbd83fb703d43c6b0U,
  0x3a1226003d947be4U, 0xbdb0ff7cbd8c65e9U, 0x3cb6e1483c5ea218U, 0xbd6f8b073c9b7860U,
  0xbd3fd914bda12e71U, 0x3d4ef3d0bd2b9cc0U, 0xbd2569b03d933d98U, 0x3d107f80bd4992e3U,
  0xbd9c7b1fb9cb3500U, 0xbd009e4abd6a849aU, 0x3c954dc43dcb04c4U, 0x3d8bae5ebd62675dU,
  0xbbb813f03bed1b80U, 0xbd1abe90bd87f5c7U, 0xbdaba47fbd8c99c2U, 0x3d8697b6bd551131U,
  0xbd14235e3c7540a0U, 0xbd20d8ec3b9d6050U, 0xbd577189bd8e5cccU, 0xbd2be656bd9ed7d4U,
  0x3d155d703d39e124U, 0x3d3b1d70bdd92206U, 0xbd856751bd915deeU, 0xbdc1f17abdccc28eU,
  0x3dc51ba8bdd18c01U, 0x3d6729dc3ce69ed8U, 0xbd1389623dd2f0aaU, 0xbc2d60383db57a36U,
  0xbc700c583d9a0a78U, 0x3d61ce2c3d95420cU, 0x3dc53e26bcaa6218U, 0x3d9aa984bd95a784U,
  0x3dd7c2c63ce3d890U, 0xbd675df53d8b91b6U, 0x3dbda93e3d043f00U, 0x3d355d803dd92ffaU,
  0x3d3345dcbc97aaacU, 0xba217400bc24c740U, 0x3d9f6a12bdc1f4ccU, 0xbd9467aabd115780U,
  0x39b11000bd9e507fU, 0x3ca36ca8bc485a08U, 0x3d3b7f0cbd90ad7cU, 0xbd3122543da69336U,
  0x3d23d220bdd96935U, 0x3d979afa3da745b0U, 0x3bba03b0bcd76230U, 0xbd95bd093dd33ec6U,
  0xbdb3172d3d0169d8U, 0xbda4ebdfbd012fc6U, 0x3d9ec3a6bdb935c3U, 0xbd0f62aabdc76949U,
  0xbce4e238bdc8dc0bU, 0x3dd623e6bd868435U, 0xbd0782f4bdaac406U, 0x3d75c100bdc56891U,
  0xbce04bf83d818baeU, 0x3ca8da70bda3befeU, 0x3d5a9614bcebafe8U, 0xbca8bf34bdb7550fU,
  0x3db09504bd57b562U, 0xbd3e9ecbbcf54a60U, 0x3beebb103d6a1160U, 0x3d17a2203d71116cU,
  0xbca5ef703d7dce48U, 0x3d2b3f6cbbea77b0U, 0x3cf0bc98bc02d848U, 0xbb300fe03dbd0b48U,
  0xbd9d6aaebd501d3cU, 0x3d2bec98bd351b4bU, 0xbca987ac3dc26394U, 0x3c7ce378ba17e480U,
  0x3d8b38ec3ced1af0U, 0x3c70a3603d2abd9cU, 0xbdb81da4bd906e26U, 0x3d0bfac8bd1408c0U,
  0xbd09b464bc97ada8U, 0x3daa40063c1977a8U, 0x3c972b903d7c587cU, 0xbd3d0b94bce6dbd4U,
  0xbd82f5d03dc45b9aU, 0x3cebb4103d80301cU, 0x3c2bd5e8bd3b688fU, 0xbdaf35e3bbe47130U,
  0xbd46f8a33dbd3a12U, 0xbdaca264bc9bfc80U, 0xbdd6bf0f3d6c87fcU, 0xbdd1a4453dce1596U,
  0xbcc228583d6d8804U, 0x3db8695a3c254100U, 0xbd9ee0463a02dc00U, 0xbdd8cfccbcbbb72cU,
  0xbd8cdab1bdaa83d9U, 0xbdce63bc3dcb29d2U, 0x3d30f8c8bdce888dU, 0xbdd4e3683d2bf9e0U,
  0xbc36c4f03c0cbe60U, 0xbc950ddcbd78fa02U, 0xbd509d3cbd4304d0U, 0x3d44c578bdcd535fU,
  0x3d909d88bd8a4792U, 0x3c3a9b903dc0f976U, 0xbc1531a0bc7c50b0U, 0xbd98fc11bccc9c70U,
  0x3aae47403d886da0U, 0x3d1263bcbd21650cU, 0xbdbfac3abce4a574U, 0xbd8c0be03d128718U,
  0x3c477b883ccb8640U, 0x3dc102a6bd47059dU, 0x3be9fd10bd8a8f5aU, 0x3d2933f03d277dacU,
  0xbc2443103dad5174U, 0xbd4f2497bd2d01b4U, 0x3d5a02b4bdd1d4f6U, 0x3c8121243cf6a420U,
  0xbd7f75f6bd9845feU, 0xbdd9acfebdca0f66U, 0x3d848486bacf6340U, 0x3d3608243ccfd440U,
  0xbd8cececbd7a1f73U, 0x3d44c0a4bd95d0a0U, 0x3c46d5e03d48634cU, 0x3d43f370bd41384dU,
  0xbb0686403d88e2bcU, 0xbdabb3913bab18a0U, 0xbdc3c7e83d6f75c8U, 0xbcee427c3c970690U,
  0x3d83ca58bdd10e38U, 0xbd0919a2bdb2964cU, 0x3c9406903cee05c8U, 0xbdd58ee0bdc17b45U,
  0x3d33cd78bdade634U, 0x3d8b35383d190530U, 0x3d06bec0bdcc8e0aU, 0xbd9c0595bd0e4278U,
  0x3d0fcb28bd9cec66U, 0x3bd10bc0bd896844U, 0x3d6c1de03dbcc22cU, 0x3d564f803dbf005cU,
  0xbbda9d003dad1630U, 0xbd8924c0bca10f34U, 0x3d49f40839ef8800U, 0xbdd9fe6c3d9496ecU,
  0x3d842fd2bdd45249U, 0x3c40e7283d474924U, 0x3da01f62bc88034cU, 0x3da639d03d01357cU,
  0xbd291862bd496935U, 0x3d1f727cbc326700U, 0x3c4b4268bc88f728U, 0x3d8bc6443d491df4U,
  0xbc0ccac03ca243e8U, 0x3da96fc8bb9197f0U, 0xbb609ec03da2632cU, 0xbcb6d640bdb6c907U,
  0x3da1ce02bdb10ad6U, 0x3d1ac66c3c8f7dd8U, 0x3b6ce5c0bda7c4f7U, 0x3d3cbb3c3d1f2280U,
  0xbdcab5673db9b89aU, 0x3b3e5700bcd23f28U, 0xbda62c803d85e514U, 0x3d000eb43dd7c940U,
  0xbcd89c64bdd17d78U, 0x3d9d05f83cae2e10U, 0xbd23c5863d1c00e4U, 0x3bae0d103c9316ecU,
  0x3d7924f83bc84d90U, 0x3d50e5243c0c0148U, 0x3d98756ebd919c82U, 0x3d47588cbcd0d540U,
  0xbd6d5672bd0fca68U, 0x3c0bd9883d97f38cU, 0x3daa0fda3d6661f4U, 0x3bf884903b353f40U,
  0x3ccb616c3dc8d586U, 0x3d5e2489baedd1eaU, 0x3c223b28bc283a85U, 0x3cbe90f7bd7c284cU,
  0x3d57df443dad3861U, 0xbccedd0e3cb67db9U, 0x3e006d21baefe9a0U, 0x3d935416bd349308U,
  0x3da8d9dd3db7dc32U, 0x3d6b9c3e3d8d3847U, 0x3d82e06bbb49bdeaU, 0x3de2895b3c97362cU,
  0x3e039f8f3dacc168U, 0x3d325d263be1d3cfU, 0x3dc735febce81fc1U, 0xbdd393dabd48c6b4U,
  0xbc3b6c053dfd55c5U, 0xbdbe0845bbb11536U, 0x3dcd6e7cbd83d977U, 0xbd6146c23db2e8afU,
  0x3d2c3640bd4a0698U, 0xbd4a267d3cbdf0c6U, 0xbd12e11b3dcaac4bU, 0x3d2a8a423db271a4U,
  0xbc23490fbd320dffU, 0x3d9a039a3d2d7ed6U, 0x3cd6e318bdc2f84cU, 0xbd379498bd980556U,
  0xbd94e0763c19c0bdU, 0x3d902dda3dbebde5U, 0xbd0d41f53dfbd64bU, 0x3bb164d2bd0058c9U,
  0x3c61fe4f3d40ae72U, 0xbd2fe0163d83788bU, 0xbd319888bd7d1c2fU, 0xbda793d0bca5bd6eU,
  0xbdb459da3d8959d8U, 0xbdbfbdb33d6afc70U, 0xbcbeee773ddfeaf0U, 0xbca4705b3de0d9deU,
  0x3c81b20b3c36a794U, 0xbd93eb36bc753afcU, 0xbd11e3493d84f7a9U, 0x3d8c7c7abd8b7a55U,
  0xbdeceb833ca12ddfU, 0xbd9e44fb3b356e90U, 0xbca69cdbbccd4dacU, 0x3dc57d86bd4c3485U,
  0x3dacc7f6bde60fcbU, 0x3da9d530bda863d0U, 0xbddf0fd93dd2e887U, 0xbdd54765bd0cd847U,
  0x3c75036e3d7bbc56U, 0xbd3432173d476240U, 0x3c25a06abd95c5cdU, 0x3d1a958abc05d3e8U,
  0xbccffdbcbb9e8a61U, 0x3d4e9d043d8b4bb1U, 0xbddaabb13dcd9cdaU, 0xbc87031c3d47e918U,
  0x3df603c3bd40ef98U, 0xbcddeb203d522875U, 0xbd7b352b3cd9c3c5U, 0x3da275fbbca56f64U,
  0xbdccca1e3da3e99bU, 0x3d7f3cbb3dda3491U, 0xbdc03f273dd1e8e2U, 0x3d8c53ebbdad0e27U,
  0xbd147e223d23aae7U, 0x3dd59b93bd2f8d47U, 0xbd772ad83b82b7c1U, 0x3d033b38bd74f8f7U,
  0x3ccfdc813da38cf0U, 0xbd69f8543c5938feU, 0x3d09f60a3dcb377eU, 0x3dd31a3fbd44a7cfU,
  0x3df2d0dcbd279e67U, 0xbda9353d3d869c47U, 0x3d87a35f3c9cd7d4U, 0x3c85788f3cadc7a6U,
  0xbd0eab5e3ddd3052U, 0xbd0e7f7e3d8e4878U, 0xbd55bc883d4bc5adU, 0x3c1a269dbd4979f4U,
  0xbcfecdc13db2a5f6U, 0xbce737a43dad3215U, 0xbd37cbcb3de94067U, 0xbdc8aea83dd5ff11U,
  0x3dcf96d13d8d43f3U, 0x3bb819e4bd89448eU, 0xbd95f8ae39161d9fU, 0x3dce83523dacd6f9U,
  0xbdc0eea83dfb6347U, 0xbd9362153d8aa2e0U, 0x3d179dadbca18cb7U, 0x3d67dc663d925195U,
  0xbd29488a3d290320U, 0x3ce0345b3dbd7089U, 0x3ccd2a9fbd2206b6U, 0x3d96c8933bd69032U,
  0xbd84cc9f3bf7fb8bU, 0x3cfc56763d94f858U, 0xbd3195e83db6a338U, 0x3dc018d93c98a2acU,
  0xbd5b68e43bed34eeU, 0x3db659b8bc822080U, 0xbd8a0bf53d8da45aU, 0x3ccde8adbc694a73U,
  0xbd9a0d0b3dcaab6eU, 0x3de996783bf92b22U, 0x3d50feaa3dde4bf2U, 0x3ca11cdabdc14caeU,
  0xbdbe11d2bd14e774U, 0x3d0abc723d7120caU, 0x3d9cca0ebc639053U, 0x3ddb3a01bd892d30U,
  0x3c4ffbcbbd64a348U, 0x3d0be253bc9f330eU, 0x3d0815003dc2404aU, 0x3d70a8ae3cd1f9a3U,
  0x3d8727483dda4125U, 0xbd2ea7033dc799b4U, 0xbcd116ce3df61b0aU, 0xbcb4021fbd9757c5U,
  0x3cf0f45cbbd00b0aU, 0x3d90d9223d85d7d3U, 0x3db7b244bd3624daU, 0x3d1b82c3bd0597bbU,
  0x3d33473dbd933bbcU, 0x3df31a1dbd469247U, 0xbc1478643d3994d1U, 0x3dc20ff4bc8510ebU,
  0xbd0bc4b5bcc917d1U, 0x3d8eb096bda8815cU, 0xbabe8c6dbd94a7aeU, 0x3db176373da1f465U,
  0x3d435c9c3dd706e3U, 0x3e0032f5bd5ff713U, 0x3c87575f3d67b638U, 0xbd9548123e055139U,
  0xbaa4fa913d895ac9U, 0x3dad999f3ce8b9dfU, 0x3d97a4be3c83e595U, 0x3defb4c1bda042e3U,
  0xbda054bb3d91377cU, 0xbccb869eb9ede5dfU, 0xbd47f4bb3def7508U, 0xbb36ed88bc8e38a7U,
  0x3d448b233d3e9625U, 0x3d0de42d3ba01472U, 0x3c5ed5933db8940bU, 0xbcf232b83d52dd32U,
  0xbd2c212bbbf38a92U, 0xbdc5b3943d1163afU, 0x3da04814bd42bae1U, 0xbdb7fe233d9ed815U,
  0xbda6347ebd5f5239U, 0x3dabf6123dd7e97eU, 0xbd2bab2b3dcc5ecdU, 0x3dcbe89f3d26382aU,
  0x3db441f6bd2c4719U, 0x3d0e595c3dfe99d2U, 0x3cc4ad583db72f60U, 0xbcebb4ba3bf35bffU,
  0x3db10bcc3d40d3f7U, 0xbc84c9dcbce92626U, 0xbdbb34f83dafe994U, 0xbdd7f28f3c5d05bfU,
  0xbd1c88273d6842e3U, 0xbc8cda293cd3504aU, 0xbb78defcbd918d95U, 0xbce2420d3d2a0a72U,
  0x3d0f25513d9c87b8U, 0xbdd3d9c33ca3ac2cU, 0x3bc844283d2787f3U, 0xbdd733d83d291acaU,
  0xbcd4632bbd3f4dcbU, 0xbd85b87ebd4ba93bU, 0xbc849e9b3db69b46U, 0xbc1e1d97bcfcae8cU,
  0xbddce4f63de77f05U, 0x3d68598f3d108a82U, 0xbcff77a63dd78d1bU, 0x3db0f3c3bceaef41U,
  0xbd8a54f53d00bd5cU, 0xbd2ccb073ca8d30fU, 0x3dbc85b6bdb3909fU, 0x3d38f77d3c8ef797U,
  0xbd27caab3d13b3baU, 0xbd55bfcdbd2a9af3U, 0xbdad70dd3cce8536U, 0xbd0b1b833c60dac0U,
  0x3de30425bc8b3f12U, 0x3d897af5bd9056a1U, 0x3d145d53bc87ab96U, 0x3d4a12fd3dba6741U,
  0x3da44f863dabc058U, 0x3c8976333cb524c4U, 0x3dccfd413da45dadU, 0x3e0d05e5bdf4d1bbU,
  0xbd8643d8bd447d60U, 0x3dc8fdc2bdc9fe76U, 0x3d0f4348bdf4f1e0U, 0x3d96d1e93cb9c1deU,
  0xbcf43e893d41a1a8U, 0xbd314f7f3d25065eU, 0xbdaa6d4fbdbf51beU, 0x3cee6992bc8d40a8U,
  0x3cbcb4c23cbdaa80U, 0x3dd17fc9bcd914eaU, 0x3ccbf312bde5cfa0U, 0x3ce5435abd4bec8dU,
  0xbd8b0ebfbd9fbf65U, 0xbdc99e663deb72a4U, 0xbd2bdd013dd06a69U, 0x3cb75a6d3d585ffbU,
  0x3cb52c3bbdabf206U, 0xbd8694253d097440U, 0x3b865e7b3da0707dU, 0xbca08cdbbc55b7d0U,
  0x3d952b843d9bc921U, 0xbdc22841bdc2fec0U, 0xbd71b116bd7dace1U, 0xbba878b43d857e11U,
  0xbd939006bdca4f97U, 0x3cad02febc778750U, 0xbd95c5963cacac47U, 0x3d930e5e3cfff255U,
  0x3bae7b323b7e3ad4U, 0x3db90e3b3d856cf5U, 0x3cb5c96bbbc827edU, 0x3d36a810bde07454U,
  0x3d664411bde4c6f1U, 0x3cc5d6cc3d80ae7dU, 0x3bcc611abd99bd17U, 0xbc7526d13d7163a5U,
  0xbba42476bda14b90U, 0xbd963019bc48f954U, 0xbd37eb0cbc192eb4U, 0x3c46809f3dbaf6cdU,
  0x3dac709bbdb60296U, 0x3d51eb363d409becU, 0xbd9a681c3d6cd111U, 0x3d92f9d2bd332ef8U,
  0x3d5ada7bbd904946U, 0xbdcb205c3dc491c0U, 0x3cef7846bdbc9cc2U, 0x3dba51eb3d93f666U,
  0xbd5bb116bdbf2ac1U, 0xbc1e48c9bcf7a730U, 0x3d1359243d958bb7U, 0x3dad691c3dac413bU,
  0x3dbabf013da10ac6U, 0xbdbcdd1fbd09e173U, 0xbc82577b3d2a3216U, 0x3d5442953db3eed5U,
  0x3dcc19eb3d2affaeU, 0x3c4cec81bd8f8878U, 0xbc875d6fbd0364f1U, 0xbd75df8abdc8f18bU,
  0xbbb886d33bf66215U, 0x3da42121bdb8d8edU, 0xbd9bd483bd98bb38U, 0xbdb48dbd3d33b4bcU,
  0xbdd34c31bd580e78U, 0x3ded599b3dc71e24U, 0x3c134044bd36594cU, 0xbdb45e45bcb9c39eU,
  0xbda6e0c239ecadd7U, 0xbc1896e13d9c4d0aU, 0x3d3d6def3c228c01U, 0xbccc27a6bdb57ae8U,
  0xbcecf7ae3da5b4b1U, 0x3d5ee449bdd26577U, 0xbd708d96bdcb2f27U, 0xbd8e7e023d69a958U,
  0x3ca5d0dbbd975092U, 0x3c81c56ebda80c64U, 0x3c218da9bc97fdf0U, 0x3dceb3aa3dc354a2U,
  0x3d511fa2bdde2e63U, 0x3d885bf2bc84f94eU, 0xbdadb58bbd835c69U, 0xbc304fb43dbe828aU,
  0x3d93c795bba62590U, 0x3d18764cbd8ec328U, 0xbd67e896bc930eb5U, 0xbd942c97bd47df45U,
  0xbcb891333c7a51b0U, 0x3cc730e53c70de8cU, 0x3d55c6453cbcd714U, 0x3d9669d1bd0b6f0aU,
  0x3dd7380c3da48096U, 0xbd62bb3cbcccc52cU, 0x3d7dc5f0bb9ec929U, 0xbd4210c83dd714beU,
  0xbc0f1701bd89c6cbU, 0xbc0523bfbc6480d7U, 0x3d870e07bd25c60aU, 0xbd845385bd1ae898U,
  0x3d902aa2bde06eb5U, 0xbd37a0053cf3c3e1U, 0xbc0f3604bc8d40dfU, 0xbd9b31a7b98dae64U,
  0xbdb0e0fd3da26475U, 0x3d641bf2bdb155c3U, 0xbc0d35fb3dae72bdU, 0x3cf204283d0ef8cbU,
  0xbdb200b13d9126acU, 0x3d8a226d3cf575a3U, 0xbd5643983d96d26dU, 0x3cf60c11bd94b4ddU,
  0x3d412d9dbdc6bd54U, 0x3da73e50bdcb6e2fU, 0x3da46ab73dbe9eeeU, 0x3dbb9fa6bdc224cdU,
  0x3ab7ac66bd880038U, 0xbd8889e93dad3b36U, 0xbc8683cabc195c5dU, 0xbd24e4dcbd1d57ebU,
  0xbc9f522b3af24a27U, 0x3bb4a3b33d8ac1e6U, 0xbddbc01e3d06e714U, 0x3d8cf00e3d48528eU,
  0x3c0678a33c8fdb43U, 0xbcda5a6a3cb469bcU, 0x3de4c9f63d5aa787U, 0x3c00cde63caa37c5U,
  0x3db1c340bdc4e5fcU, 0x3da95f2b3dc8fc6bU, 0xbd06bf2d3d53cd7aU, 0x3d6f5c433c90b6e3U,
  0xbdb5692bbd39990fU, 0xbd870c08bd9f3363U, 0xbd96bea2bcece214U, 0x3d5a19c1bdb71e91U,
  0xbc2255603dbee224U, 0x3d400d7abd2c74efU, 0x3c24548f3de748bfU, 0xbc50c25bbce560efU,
  0x3dc3c57abde0e68dU, 0x3dc3c1fb3c6636d2U, 0xbc1af9ffbd20c774U, 0x3dccad513db9479eU,
  0xbd3536393b433535U, 0x3d8ac90e3d56c02aU, 0x3d7a6121bdd00942U, 0xbc2af9173c4678d3U,
  0xbd3000f2bda6eec7U, 0x3da081dfbd9d8becU, 0xbd19fe0a3dd8bb53U, 0xbdf8a5343d8cd07fU,
  0x3cdcb295bda76d76U, 0xbd595429bd0441afU, 0xbd9061e5bdc01a1eU, 0x3be0a69fbd18a753U,
  0x3dc4704ebddad0b9U, 0x3cb33928bdca50e2U, 0xbd23c1b8bd8df12fU, 0xbd427fe23c21d108U,
  0x3d144abc3dcd02bfU, 0x3d5b63823d133b50U, 0xbc8f5eaf3c0227c3U, 0x3d54fa933d4e14a9U,
  0xbd9908f93d17ddc4U, 0xbdad8a1b3d289812U, 0xbd1ec8b1bd801f9aU, 0x3d97ca073d8d5e71U,
  0x3d64195cbdbc36ccU, 0xbcaaa4bebdb1cac8U, 0xbc8f103b3dc4aa33U, 0xbd1496a6bcb826a3U,
  0x3d74a956bce2bf02U, 0xbcebd0623d269ad0U, 0xbd8b02f83cb26984U, 0xbc9634a23c865a34U,
  0x3c0c3ce23da82907U, 0x3d7be44abce8f426U, 0xbda37b1a3d98ec2aU, 0x3da199563cc0adb9U,
  0x3cecea9c3db1a834U, 0x3d7ccb3e3dbcac3dU, 0xbc6063343b966bc0U, 0xbccab559bd88f665U,
  0x3c8ce9f13d9866a6U, 0xbdd59334bd41881cU, 0x3d939e4a3da1693dU, 0xbd91fcb53dbe9353U,
  0xbc084d303d165ce4U, 0x3d2e467ebd8d06e2U, 0xbd15d25ebd9ac7f0U, 0xbdab35403dc1391aU,
  0x3d96dfb93ddebac3U, 0x3d44e5e63d4f40c1U, 0x3d726183bc92f9a3U, 0x3da487983bc5dd36U,
  0xbd94c6a0bdbd39dcU, 0xbd6df77f3d115f21U, 0xbd3949603dd6f340U, 0xbddea9523d5fd9f8U,
  0x3d741dbb3d52d177U, 0xbd8e6e103db42710U, 0xbd9576ddbc9eefc0U, 0x3de88de7bd6a6184U,
  0x3d2fb9e43cf79c5fU, 0x3d40736e3d7f4fe9U, 0xbcbd1951bd54199bU, 0x3d1010ebbd8e6d72U,
  0x3b876876bcc58395U, 0x3d9a09bfbdd65178U, 0x3dfbde37bd2d516aU, 0xbd43d9d1bdb24473U,
  0xbd472b21bdac83bcU, 0xbd636f993de1e40eU, 0xbb8629983cd6bbb5U, 0x3bdb9e2dbcbe95b5U,
  0xbd54b5b43db1b262U, 0x3c1cd4473dd06a98U, 0x3d84a4e13da81f3bU, 0xbd575682bc54b6b8U,
  0x3d90abfcbd4f6a63U, 0x3dce2fadbbfc88daU, 0x3cd7ce523d08bce1U, 0x3de570893c9d60d4U,
  0x3d96ec1f3d3b81f1U, 0x3d9ea9803dbccb85U, 0x3d7b667abdb73820U, 0x3d7db902bd8e3fabU,
  0x3765d2403ddb6031U, 0xbd9d587fbd8d3e2fU, 0x3d3e2d15bdb8cf3eU, 0xbd553fbc3d010937U,
  0x3d97b17bbcfad7cfU, 0xbde335e73e050ae6U, 0xbcb91eeebd4aaee8U, 0xbc95d8aebc171388U,
  0xbd2482653c36c28dU, 0xbcc0d2b1bd7f1635U, 0x3de1c729bde644ccU, 0xbbde623a3d1b4d42U,
  0xbd4df249bd294d3bU, 0x3d06bbd43ddc0965U, 0x3dbae5893b08dd90U, 0x3c5e02bdbd53959aU,
  0x3dcde2b9bce762ebU, 0x3d20bdf1bdc13c98U, 0xbd8e427ebdc63563U, 0xbdea0ec03ccee261U,
  0xbdccde433d662c94U, 0x3dc8e6e53cd70584U, 0x3dc93efd3db48d08U, 0x3d0e9ab8bd4c4224U,
  0x3d3a75e93d1a381dU, 0xbd34f6223cbfcac0U, 0x3b1ddb64bd3d533aU, 0x3dab0513bd8672deU,
  0xbccebc703d5645fdU, 0x3ce636663c7cc939U, 0x3dbccb97bdd7be7cU, 0xbd26d77fbd9c41f9U,
  0x3a5101883d885846U, 0x3c642d5fbda3b257U, 0xbd4f4a953c3dd7b9U, 0x3d9cc61c3c6c0040U,
  0x3d5f0f6c3d9922e2U, 0x3d95b101bdc5de72U, 0xbd11aaa63d84683aU, 0xbd1c58273db794bbU,
  0xbda835e23d2d13f4U, 0xbd9edd263d13e572U, 0x3d9cb4643cd949d1U, 0x3d66208ebdc6534aU,
  0x3d2f43c53d856539U, 0x3cfe9f703d556e97U, 0xbd0d7b3ebd4c200cU, 0xbdbc7be83dd2fe95U,
  0xbd4b61a7bd8fe03bU, 0xbc4e555dbd15edfaU, 0xbd1031c73ddd41c3U, 0xbc8a0730bc93d941U,
  0xbd0a41853d3fea37U, 0x3de41ee8bc9bdad5U, 0xbd16fdc83da04118U, 0xbd6506ba3da3d619U,
  0x3c2f899bbd90f4b3U, 0x3db8ae1dbdc36d1eU, 0x3de6cb4ebdc4420bU, 0xbd72fab93db80f19U,
  0x3d5607e43d73c511U, 0xbce797b93db7e7acU, 0x3d82ddccbd915bbeU, 0xbc9a2504bd711a66U,
  0x3dad4c663d5b4916U, 0x3d209c023c91312fU, 0x3dc60149bdacb8e3U, 0xbba99c8cbd8a5cdbU,
  0xbdbb3470bd1ff30eU, 0x3c8877273de5b378U, 0xbda2735bbd683a40U, 0x3c95daeebc9e09b9U,
  0xbdc45f1b3d49eedcU, 0xbd963775bc76c722U, 0x3d145068bd51c4b9U, 0x3db75f7d3d378c46U,
  0xbd3904423ca3a339U, 0xbd0f8d0c3d219ff0U, 0xbdc06239bd4a6867U, 0xbd2bd2a73cef2212U,
  0x3d8ffddd3a38a4a9U, 0x3d3ed255bd99d3d8U, 0xbd72125b3d624039U, 0x3d8e7cdb3d49d549U,
  0x3d99dba53d8ca174U, 0xbd621283bd846de9U, 0x3d45548a3cc98b9eU, 0x3c09cf9c3db42f3dU,
  0x3d9d101fbd7fa071U, 0xbc60a97fbdf08056U, 0xbd20e6a6bae1fa77U, 0xbdcdc8803cf5f8aeU,
  0x3d0369fb3c9b1a91U, 0x3d8dac283c148d7bU, 0x3d15f1163be679daU, 0xbb7c67363d6cba15U,
  0x3d908d54bd9fd125U, 0x3dfaf4ad3d29ec3bU, 0xbcbd825cbd75e977U, 0x3d61b6203d90a844U,
  0xbcbcac393bad3fc7U, 0xbdafa8443dea260dU, 0x3d28fb7abc9a8fd5U, 0x3e002c1ebdd2771fU,
  0x3ddfe339bdeccee3U, 0x3db931033b1f4c57U, 0xbd8bab933dd2e8fdU, 0x3da60b8abc9560bcU,
  0x3daeb1c43b85b8f1U, 0x3d669d393d7b4c69U, 0xbc17d8c5bdac42a4U, 0xbc151be13d2eab1aU,
  0x3cf5bd59bd89d9d1U, 0xbce69ad23c82f8edU, 0xbd52c20a3db567bdU, 0x3d4a58ac3bf044abU,
  0x3d28de183d0160d5U, 0x3b9e9ac23cc78271U, 0x3c34ee153d8b8975U, 0x3aa3b2cc3da7a66dU,
  0xbd7040a4bd4b9478U, 0xbdd82eb43dada126U, 0xbd6ef6eb3d459f28U, 0x3d90748c3d18db69U,
  0x3d11ce193cd7986eU, 0xbca2c931bd8709d3U, 0xbd0279df3d1080b3U, 0x3d046d5f3e041388U,
  0xbdce20a23dd4c2a4U, 0x3d0b1b3f3dca63b6U, 0x3d5a72bebcefcbe0U, 0x3b97f451bd121516U,
  0x3e006b95bd8c7bbdU, 0xbd3bffde3d81c982U, 0xbd2f8c753d9070efU, 0xbdd47f89bb92b117U,
  0x3de36ced3df59e72U, 0xbd2f52c6bc27134fU, 0x3e011380bcbc9803U, 0x3d18448abdbde45fU,
  0xbd3491403dba35a3U, 0x3cd8bce53dd939f9U, 0xbdb889933d9422f0U, 0xbbfeb83bbdaa87a0U,
  0x3d42cf003dc2f20dU, 0xbbf4ce8abde97e79U, 0xbd82d0233ccaeddfU, 0x3d980ea8bcc87502U,
  0xbd2afdee3db15765U, 0xbdb6a6563dbc194dU, 0xbd393e2d3ca8f177U, 0xbd193b3ebc82bc4eU,
  0x3c8eb999bc19b7e1U, 0xbd2b5d1e3d547cbcU, 0x3d3d946ebd35b697U, 0x3c701326bc85f66bU,
  0xbdde7ac0bcfe70edU, 0x3d1034033ddbe758U, 0x3caa0d963daa0e6bU, 0x3ded7806bd4329ddU,
  0x3d9eb8f8bd891d7aU, 0x3d23b47e3db2aba4U, 0xbdc801753dfbcdaaU, 0x3d1f7f883df42132U,
  0x3da1f3f03d0413f4U, 0xbd8006753d1d90a7U, 0x3bfd31b9bdb3cfa7U, 0xbdb61264bc9e7377U,
  0x3c3984623d4c339cU, 0x3dcd60963d88bc9cU, 0x3c983a833d63671fU, 0x3dd8e45abc87b643U,
  0x3c918770bcd65460U, 0xbda0bcacbd63a235U, 0x3dd2cc803dba93f4U, 0xbc541b70bd176a28U,
  0x3d5d2fe8bca9996cU, 0xbdcc7420bc86d8c4U, 0x3d22af7c3db5da3eU, 0x3db5d0a6bd7e78c9U,
  0xbc067b883d6804c4U, 0xbdd65fcf3d098e40U, 0xbcc9ba983dc4c0c0U, 0xbd4e26523db32808U,
  0xbdd45426bcd5d0a0U, 0xbd46d294bb2532e0U, 0x3cc31b70bd9b3e3dU, 0xbda16942bcf350b8U,
  0xbc98a618bd9ef9c7U, 0x3d798b98bd093f4aU, 0x3ccd7078bc97b5c4U, 0xbdcb217e3b4edc80U,
  0x3db11d103d072040U, 0xbcad9380bc55bda8U, 0xbd280072bd53fe45U, 0x3db5cf6cbd3d91c3U,
  0x3d9392febd0a14f2U, 0x3d637d58bda2d246U, 0xbd1e7fdabda82577U, 0x3d658708bd245236U,
  0xbd11261e3daec600U, 0xbd576de9bda6048dU, 0xbdcb2133bba7f210U, 0x3d12cf6c3a97c840U,
  0xbd9b3fd73d7cdb6cU, 0x3d196df03c36d5f8U, 0xbd9410ffbd8aed03U, 0x3d9e494ebdc650feU,
  0x3d9ff87c3d13eed8U, 0x3d5cc3d4bca2faf4U, 0x3d89e99c3d7720c8U, 0xbcee3f74bd85d905U,
  0x3cbe77a83ca45ed8U, 0x3cb924e8bd7acfd9U, 0x3d766258bcd3fa84U, 0xbd0adeb6bdd12594U,
  0xbd993922bd614532U, 0xbd897a12bd91dfdeU, 0x3d3f55f0bca159c8U, 0xbbb4a9003d8286acU,
  0xbdbd28523db6395eU, 0x3d8a372e3c478650U, 0x3dbb3eb0bd8317b6U, 0x3bbeb9c03c831dbcU,
  0xbabccb003ce501f0U, 0x3dd6c382bdba8ad1U, 0xbd8adb14bdb01a0aU, 0xbd004c003dcb4c9eU,
  0xbd3aeb17bc9057c8U, 0x3d99d052bd7f8e5fU, 0xbd50125c3cb97628U, 0x3d085ebcbcc14f24U,
  0xbda5cb48bc293900U, 0x3dcaa728bd9d7b12U, 0x3c37c788bd83411dU, 0x3d2ec65cbd1ee772U,
  0xbd2ed7bcbd6901acU, 0x3cddb1b8bd381e3aU, 0xbd1afaa0bd09cf86U, 0x3d8ee89a3cb63d20U,
  0xbcb75714bd58a610U, 0xbd92603a3da1d264U, 0xbda9c5f7bda226b0U, 0x3a38d8803da45768U,
  0x3c7b2c783d9b5004U, 0xbd8a164abb1137c0U, 0xbd9179093b538440U, 0x3d71dd98bd7d45d4U,
  0xbd0333a43d7d23d8U, 0xbdaa6dd9bcb6de68U, 0xbcb9219c3cad7c78U, 0xbdb617903d7e2a8cU,
  0x3da9b6f6bd6d8d59U, 0x3cff89d03a434780U, 0xbd9a91113d24db58U, 0xbd72a88f3c6388b0U,
  0x3dca2b9ebd163b70U, 0xbd301486bd0c2c60U, 0xbd85ea70bd64ce35U, 0x3d92a370bd38f9eeU,
  0xbdcd0140bd21eaacU, 0xbd3dc236bd0466deU, 0x3a89bc00bdb92ab4U, 0xbc0b55583c405ba0U,
  0xbd49f52dbccac9e4U, 0x3acacd003d4ec690U, 0x3bfb6af0bd82b0b2U, 0x3c9eb6203da29712U,
  0x3d2d6adc3d957afcU, 0xbda8d879bcd0da6cU, 0x3db2bc60bd9adb95U, 0x3d4dfbc43d6c2c14U,
  0xbd9cd3593da1483cU, 0xbd7481ebb98ec000U, 0xbd84af8a3d1f09d4U, 0x3d831616bdc5789fU,
  0xbdd490193dccb3a4U, 0xbd1405a23ce413e8U, 0xbd4808b5bd46bec1U, 0xbdbf7df63d68d9b8U,
  0xbcb05aa43daefe04U, 0xbc981c44bd219e5eU, 0xbcd9fc543d1d3484U, 0xbd66c00ebced2910U,
  0x3d36497c3d2252a0U, 0xbd8674973dbc36d8U, 0xbd15d1d23d804900U, 0xbda188223d9a44a0U,
  0xbdc82cc0bcb2dc60U, 0x3d9a81e4bdb9dbbdU, 0xbd9b1d8a3d001ae8U, 0xbcd8937cbbb68580U,
  0xbdc16bf23d0787c8U, 0x3b82ac80bdcbefcbU, 0x3d2d3b9c3d1544bcU, 0x3da80170bdb0a508U,
  0x3d2846983d0c7eccU, 0x3d4398983d9d35acU, 0x3d2217283c291f30U, 0xbdb29f063c2cec90U,
  0x3c10d6783ca961e0U, 0xbd96e63dbdaedf9fU, 0xbdb6c472bd228b06U, 0xbdd80d14bdc19364U,
  0xbd0fb466bd9b8df3U, 0xbb4a8320bda93364U, 0xbd6cdb1c3b9c4500U, 0x3d947c02bc29c848U,
  0x3ccbb318bd5d89ecU, 0x3dc0fbe2bdafcf08U, 0xbd12a314bdbe2707U, 0x3da2b902bd979f12U,
  0x3dabfaa0bcfff204U, 0x3db66aa8bd9159a8U, 0xbc25e950bd9a6671U, 0x3cf4ac683d6bcf90U,
  0xbd821dbc3c9b9db0U, 0xbdbda3f0bd250b3eU, 0xbcebb8dc3d583554U, 0x3d245b843dba2518U,
  0xbd6972a43db54e80U, 0xbcdf3644bd87bb9aU, 0x3dc43cb63dd2c622U, 0xbd2d6fee3bfc6680U,
  0xbcabd3f03ce25fc8U, 0xbbc65da0bd184cdeU, 0x3d82e3d03dc7c5a8U, 0xbd8cd134bd03dc9aU,
  0x3d8d73a6bd6f9b57U, 0x3d94f6003c95bf24U, 0x3dc3a1b03db0a11aU, 0x3dce8c9abdc26457U,
  0xbdb8081c3c8b33a4U, 0x3dc632603c83c594U, 0x3daea1543d45c6dcU, 0x3cfcfd503ce6de10U,
  0x3d9d9a5cbbf2c7a0U, 0x3c4cc890bd1fdbeeU, 0x3da8f3e6bc337c28U, 0x3dcee25cbcb74330U,
  0x3d7dcd28bd4259e8U, 0xbd11485cbdabfe9dU, 0xbd055006bd4739aaU, 0xbd1b103ebd1428dcU,
  0x3dbacdfcbdb79702U, 0xbdd461053dd2fefcU, 0xbdc4b46239a0cf00U, 0xbd7cbac53d17de44U,
  0x3bed67a03da7b49eU, 0x3d47eab8bca60558U, 0x3d7bb1703dd3c518U, 0x3c98b148bb0fa320U,
  0x3d41ccbc3cef5d08U, 0x3ca3a550bdbbd085U, 0xbdad0c683d9e723aU, 0xbdbab5043dd8324eU,
  0xbdc70c0dbd2c85c8U, 0xbdb6e381bd66af96U, 0x3a9b51003daf333cU, 0x3d767b8c3b95b7f0U,
  0xbbc40bb0bd825676U, 0xbd35e15cbccd6b14U, 0x3d086078bdacb3a2U, 0x3c7032b8bce5db4cU,
  0x3d59ab9cbd833cb7U, 0xbdc1b9053dd5a9b2U, 0xbd925b34bc2339d8U, 0xbd842e20bceeb9acU,
  0x3d8355d6bda0cbc5U, 0x3d76d5c83d42b344U, 0x3cc513c03d472e10U, 0xbcc39db43d88f7c0U,
  0xbdb393d23d92e074U, 0xbcfec184bdd5f554U, 0x3cf57c60bd3234b8U, 0xbdafaa893cb792a8U,
